
/**
  ******************************************************************************
  * @file    all_data.c
  * @author  AST Embedded Analytics Research Platform
  * @date    Tue May 31 22:34:39 2022
  * @brief   AI Tool Automatic Code Generator for Embedded NN computing
  ******************************************************************************
  * @attention
  *
  * Copyright (c) 2021 STMicroelectronics.
  * All rights reserved.
  *
  * This software is licensed under terms that can be found in the LICENSE file
  * in the root directory of this software component.
  * If no LICENSE file comes with this software, it is provided AS-IS.
  ******************************************************************************
  */
#include "all_data.h"
#include "ai_platform_interface.h"

AI_API_DECLARE_BEGIN

AI_ALIGNED(32)
const ai_u64 s_all_all_weights_array_u64[ 11219 ] = {
  0xbcef2b513d0f859fU, 0x3d1319e43c65718bU, 0x3dab22bebd9f9be1U, 0x3c6e58123dacbd51U,
  0x3d653b313d24873dU, 0xbd710a80be025f58U, 0xbd951e00bd6968b3U, 0x3d9dcb943991403fU,
  0xbdca14c23e1a96baU, 0x3dd579e03de02b7cU, 0x3dcfe50fbe0bc46eU, 0xbdbf7984bda3b969U,
  0x3c818a1ebc8614f6U, 0xbc07298ebd853adbU, 0x3df8deb1be11df60U, 0x3d9e40663e0bc8ddU,
  0xbd760e69bae9c3d7U, 0xbe0e51cdbdc75e1bU, 0x3d552beebce21ca1U, 0x3cc19e9abdd76fe1U,
  0xbe1af23dbdcb2eeeU, 0xbdcd65143dcea2aeU, 0x3d7a3424bd7ffdb3U, 0x3e285ecabcf01378U,
  0xbc06dd2e3d81d6e0U, 0xbd9689d53e15d54eU, 0x3dc4f01a3e040e16U, 0x3d7027dabd21c9d0U,
  0x3d0819e23dbf9424U, 0xbaeffad13c9dfd67U, 0x3de125b63d545ce9U, 0xbdc12388bdffb443U,
  0x3d4748ee3d6981deU, 0x3dc76911bd867efaU, 0x3d1928883d41a910U, 0xbdff3ee93d7c48d9U,
  0x3d308cbabc12a02eU, 0xbb87e6e83d907c46U, 0xbdf589de3e18d83dU, 0x3d066c03bba9da2bU,
  0x3dc51791bd1996a8U, 0xbb03a1c6bd3663a4U, 0x3dd105dc3da9d749U, 0x3e4947a13da4afd2U,
  0x3d872c9e3ddf1b90U, 0xbdd556943cc1a71aU, 0x3d9ba8d6bc6528bfU, 0xbe220d3abd987dfbU,
  0xbda5dac6bdb93948U, 0xbdb64b91bd55f194U, 0xbe350a6f3c166815U, 0x3c0644493dd4f435U,
  0xbceb9e783c079bb2U, 0xbdea9a813d4b2deaU, 0x3df7bee3bd46f702U, 0x3d34f96abc64e02fU,
  0x3dc4d57ebc91faebU, 0xbdc9a97e3bccb361U, 0x3d4dcb66bdc2fe39U, 0xbe41fbcb3e16e62fU,
  0xbcdf812abdce821aU, 0x3cc69c90bc09c60eU, 0xbd1a2e6e3e13216eU, 0x3d4f2061bda6677cU,
  0xbd7768983cb0d2abU, 0x3d7b51673e1ef681U, 0x3d3cd29d3dd81efaU, 0xbe11d934bd0206b5U,
  0x3e25fdb73ce839a8U, 0x3abc4426bde49d07U, 0xbcaef90f3e23cb7aU, 0x3d95bc79bdf3343fU,
  0x3dcdefa6bcdc3c92U, 0x3dccb67fbc6a6bd8U, 0xbcf699cf3d6f5fb6U, 0x3da2ca8bbd985a7cU,
  0x3d898d5ebde71e34U, 0x3df02fd1bdbc6009U, 0x3d256eee3d3086acU, 0xbd3f69ec3e099729U,
  0xbd0ac270bd648061U, 0xbe0b28893d93d6f0U, 0x3cf317023e0540d6U, 0xbd79930b3bc2f48aU,
  0xbddc3afa3d8c1e6dU, 0x3e2127503dc50ac5U, 0x3da6a5853d06af30U, 0x3d5cb136bd1c3f1aU,
  0x3dc64cb7bc8d7c75U, 0x3dcda9c8bda2e48aU, 0xbc2d8757bd977de2U, 0xbdfb0c42bd34a952U,
  0x3e2c0f203d3c1b23U, 0xbd0e0002bc63b1f7U, 0xbdbea51e3d7954d2U, 0x3e079df4bc734669U,
  0xbd43dc1fbda6354eU, 0xbe103b62bd267040U, 0x3d982c2f3dbc32a7U, 0x3e20715bbdb64166U,
  0x3d9a96b33dc2b806U, 0x3e05b4fa3dd1cfb1U, 0xbb8fee293d832101U, 0x3c1260b03df4db12U,
  0xbd5a9265bc7a2c97U, 0xbe193656bc25fec7U, 0x3c6f940fbe0e7b95U, 0xbdcbe9f33c7c727eU,
  0x3ddb817e3debe6f9U, 0xbda6a22d3e755568U, 0xbd836755bd828310U, 0xbd92116fbc085ad5U,
  0x3da351bc3e4cf585U, 0xbe6ffa063da35a1fU, 0x3df13620bdac4c8aU, 0xbd5d378dbe3767beU,
  0xbe2a4b163e22f617U, 0xbc8a37a33d086c63U, 0x3d789788bd827087U, 0xbca9cb4abdd07004U,
  0xbe00d9403d0bf409U, 0x3d890e2cbcdcde07U, 0x3d17fb5a3dfa5967U, 0xbc3fbb503dee5c65U,
  0x3e1726183d99664aU, 0xbd9c47b1bd72a2b1U, 0x3e209c303c2ac148U, 0xbd8e33543d61f896U,
  0x3db1e2113e304c2fU, 0x3e3fed573cd41024U, 0x3e2cef463c34941dU, 0xbc53d2213df36493U,
  0xbc5cf7ae3d800d80U, 0x3d56eeb5bcbb4c8aU, 0xbd924700bd92edfcU, 0xbd84a11b3cd59788U,
  0x3d5dd1c3be4f35f8U, 0xbbde17b13ddb9220U, 0xbe0337c6bdab6515U, 0x3bdcc648be16e815U,
  0x3ce45481bdb01d90U, 0x3de6d385bd565702U, 0xbc77c112bb395dd8U, 0xbdf8e6523de2fa6eU,
  0x3c643e4f3dda1edcU, 0xbb8ffc863c0e5765U, 0x3e336d833cf40932U, 0xbda635093a879a24U,
  0x3d80aa2f3d38eb3aU, 0x3ceb3f283d8843efU, 0x3d25f8d63d98ac56U, 0xbc9e207abc512182U,
  0x3d86bae93da1d6acU, 0x3df7a1e63cbde0beU, 0x3d4eca3f3dd21658U, 0x3d66220a3e947384U,
  0x3b0e93153e63d482U, 0x3dea77b2bd893385U, 0x3e3679543e42906cU, 0x3d484e473c778d6aU,
  0x3ee1aee13edec2d1U, 0x3f0e1e603e839a8aU, 0x3ec09d593ec9ab6eU, 0x3cc4b1443ed89080U,
  0x3e56fefa3e99b77eU, 0x3e8710fd3dbe5805U, 0x3dfddba23ee13b4fU, 0x3c1729fd3d97ec43U,
  0x3ef103d13e8f3200U, 0x3ec085813eb878e8U, 0x3c105c163c4cc887U, 0x3e5eeb333ec297f7U,
  0x3d93f7213e00f09bU, 0x3e75ad3e3ef0a8d4U, 0x3e8a30593e1fd2ccU, 0x3d59c8dc3e7e8a7aU,
  0xbf45e29cbf23fcf6U, 0xbf29a8c2bf695036U, 0xbf967ad6bf4c039dU, 0xbf07b1dfbfa23ac8U,
  0xbf8b2654bfb2f262U, 0xbf747506bec49338U, 0xbf5b0a57bf2efec9U, 0xbef502b0bf1fddafU,
  0xbf3dcbb3bf87ed37U, 0xbf629bcbbf0c9ce1U, 0xbef704eabef441efU, 0xbef6a66abfd12079U,
  0xbf6ef298bed7b178U, 0xbf7610f6bf065163U, 0xbf85f44cbfacf7bcU, 0xbf189c68bf42e381U,
  0x3df7a61a3db5e27aU, 0x3d7987543d5b38a6U, 0x3c865886bc9b3283U, 0x3d812758bd5a6bd2U,
  0xbc0d6c463dd36880U, 0xbcfecb633c99bac5U, 0x3c0550f93dcc4ef3U, 0x3c3c4742bc2ea212U,
  0xbd62b6c6bd55a6e9U, 0x3d9fd0e4bbb4e9e5U, 0x3d74bb133c351c47U, 0x3c82a5dabe080527U,
  0xbc25ca5a3b85826eU, 0x3dc3847dbb09ad51U, 0xbc8206743d2aea26U, 0x3d80269cbdb3b5f7U,
  0x3d9e851abdb72ffdU, 0x3c843460ba82d309U, 0x3dba7ae93d60a385U, 0x3c3450423d5c2974U,
  0xbcd33b4a3d4a2e9fU, 0x3d85a57c3b4eac11U, 0xbd5bf7c03d6a96e7U, 0x3dcc8a9bbd6fce38U,
  0xbe033719bda461feU, 0x3b0d1181be169e5dU, 0x3b47677b3db9690bU, 0x3d031e873dc65fc7U,
  0xbd9d0679bc0f710bU, 0xbda9ac9e3dae04a1U, 0x3c91e6533b56099cU, 0xbda62f563d755272U,
  0x3dd80c82bd2e4d34U, 0xbd02f44ebdc07cb8U, 0xbb2eb530bd0fadafU, 0x3c7eaf8d3c112701U,
  0xbd9faf8cbdbceb82U, 0xbd499616bdd1c39cU, 0xbbc52bb63d4ddabbU, 0xbd95c23bbdacda0cU,
  0x3c8fecd8bda37e25U, 0x3dbf09153c3000ddU, 0x3d59e479bdbd89dcU, 0xbd55c6893ddec456U,
  0xbd786fc33d9dc4ccU, 0xbcbb7e02bb7320d7U, 0x3ca372d53d373647U, 0xbcb47260bd09cb37U,
  0x3dacdca33d0b41d8U, 0x3ce31df83c614386U, 0xbd12755b3b0ea14eU, 0x3d752025bcb5c86eU,
  0x3d1351373dd46617U, 0x3c8fcb133c90a4c1U, 0x3db71306bd506545U, 0x3daeafdd3d4bf20fU,
  0x3cac1c373c273bdcU, 0x3c2a7a303c22d2aaU, 0x3db49f6e3ce04e9cU, 0x3c3f6fecbdca9cabU,
  0x3d10ee2fbd9eec79U, 0x3dc4625dbc8bb613U, 0x3ad7812d3e232289U, 0x3bec04cfbdaac4abU,
  0x3da2ecb5bdf37b21U, 0xbde474c1bb220b22U, 0x3ce7a2733d8bed40U, 0xbd6980b7bd53caa5U,
  0xbd027be7bd0892a9U, 0x3db0d3f43c7a3ad5U, 0xbda05888be45b1c0U, 0xbc48ef0f3d1dd85eU,
  0xbdcfbd69bd472972U, 0xbde92631bddee813U, 0x3d58a9ffbcb428adU, 0x3dbb0aadbd4bcb25U,
  0x3ce5613d3d18beeaU, 0xbca02162be47cdbfU, 0x3d8be8d5bd85216bU, 0xbd634804bd5d1d7fU,
  0x3d428cdc3b89e29cU, 0xbd62d5b5bc98363eU, 0xbd097a2bbd3b659fU, 0xbd92ab4cbdd31429U,
  0xbdcfd09fbc395c71U, 0x3d5606f03c1a692eU, 0xbd1cd295bcf862c7U, 0x3d3935a3bc8f001eU,
  0xbd3dc834bdcb15eaU, 0x3d8827123d14d803U, 0xbd458a73bd985af6U, 0x3dba7298bca9c2cbU,
  0xbbe01e9d3db3f0cbU, 0x3c9018a83c871e3aU, 0x3ccc26a1be0de6b8U, 0x3d1be95d3d15fbc8U,
  0x3d61e72b3ce1bcf3U, 0xbc81ea6b3d507355U, 0xbda150ac3ded5028U, 0xbc047c21bc3236a1U,
  0x3c9389e73d45c04eU, 0xbd2b225e3cd81f54U, 0x3c1d80353d8be029U, 0xbb81a8d73d222c07U,
  0xbd87b6c13d9156a0U, 0x3d79c9f9bd8eafd6U, 0x3d0ad1213d81d82aU, 0xbccda076bd26bf08U,
  0xbc9bf711bdbeb02aU, 0x3d37b5abbda36f6bU, 0x3d8366233d73df0aU, 0x3cf61bc5bd5aeb7dU,
  0xbc73b0babdd33cb2U, 0xba70f6453dc473adU, 0xbcc72bd43db1ad44U, 0x3d349b73bd64205eU,
  0x3c8f1411bdabfcfcU, 0xbdb36fff3dd4e9c3U, 0xbda915d7bd451285U, 0xbc3072423dc53b61U,
  0xbe24cab4bd46fc44U, 0xbdbee14bbc75f720U, 0xbc2055013cdb5188U, 0x3d4356cabc77b54aU,
  0xbd4a56c23e117ba2U, 0xbd8bac823d0cc97bU, 0xbd1f195fbd86d569U, 0x3d128f3cbc0b50c8U,
  0xbdba1fdbbcb7168dU, 0xbdcd7856bc910332U, 0x3da1ea3a3ba708a0U, 0xbd553545bdb8a069U,
  0xbe054b263d749340U, 0xbd10637c3d338632U, 0x3c3947523d73d50eU, 0xbd2ea9673d9fcde2U,
  0xbda8f3a3bd3a2b10U, 0xbdb7d55b3cfc1a9fU, 0xbcb191163d3ff0d1U, 0x3d0db2a83c67764eU,
  0x3cd9a02b3d2ac97dU, 0xbcfc05fdbd3929e7U, 0x3da8881cbc71bb43U, 0x3d387a2f3d37e93fU,
  0xbc1bfe3a3d8b6394U, 0xbd1f4c653cd1ef14U, 0x3d4fca23bdc29846U, 0x3cbf5259bd8fa87bU,
  0x3d0b6bddbdacbc50U, 0xbcdcc4debcbb4517U, 0xbd54fe563d4504daU, 0xbd44493abc5260c2U,
  0x3ce341c73b9788d2U, 0x3d82953a3d90e819U, 0xbc40ed3fbb71273eU, 0x3ddfc687bc3ba150U,
  0x3d9fef723cac5380U, 0x3c5f941fbc8b8647U, 0xbc8e16993c84a980U, 0xbcd316323d21944dU,
  0x3d7867233d2243a9U, 0xbc3a3343bb09db70U, 0x3dab0ceb3daede32U, 0x3bfdf180bc2f063cU,
  0x3cb3ed833c761bbdU, 0x3d9b3a05bc9f4f56U, 0x3cb6dafabd4ec5eeU, 0xbd07cf4fbaf6de3bU,
  0x3d8cf6053c28aaaaU, 0xbd28ca6c3d2cab66U, 0x3d9d3357bd1291c7U, 0x3d1453e2bcddb3baU,
  0x3cb5bee83d94b66cU, 0xbd9e1e883c8b9c34U, 0x3bc7dcfc3d8d8981U, 0x3d0379ff3c83983eU,
  0x3cab5cc5bda352aeU, 0x3db7574d3d490b76U, 0xbdcdf36e3d57b853U, 0xbcaab6f3bc8f1bf7U,
  0x3db288e1bcb840daU, 0x3dc584b33c8b6ef7U, 0xbd461086bc8a8990U, 0x3d8f40fd3caa01b1U,
  0x3c297b7ebd4b0319U, 0xbd20bc14bd57a81eU, 0x3d03ff20bd971665U, 0x3c5e118abdc95625U,
  0x3de3bc123d17af6dU, 0x3d97f90c3daef2e3U, 0xbd8cd766bdd0ff5eU, 0xbda246813d61461dU,
  0x3dac2a7ebc8db624U, 0x3da4567cbc925f6bU, 0x3d604d00bd916e45U, 0x3d07404b3d3eb0ecU,
  0xbc50313bbd7e23c7U, 0xbd7e9840bd056f1aU, 0x3ce3b3da3bebebdcU, 0x3d92061e3d099e90U,
  0xbc579c58bd2eb889U, 0xbcdedd0c3be3a956U, 0xbd8f2f07bd24f1d3U, 0x3bdaa09c3da327c6U,
  0xbbf43f33bd1fc0cfU, 0x3d540336bd91fd76U, 0x3cec06edbe0d1054U, 0xbdca972abd117aeeU,
  0x3d3b062abd6b7fe0U, 0x3d9c2fe13d6b5262U, 0x3d2ddd5d3e01aa93U, 0x3d26910abd4acc06U,
  0xbd348387bd8943c5U, 0x3d5301e0bdbcc15eU, 0x3d7a0f7b3b0f9d04U, 0x3c3a6fdf3d84dad6U,
  0x3c47f1d13d8b2eacU, 0xbd7b52973cf8a058U, 0x3d9c69cb3df02ea9U, 0x3d2b2cefbde691e4U,
  0x3da17f89bc699d86U, 0xbd4abb56bd176e66U, 0x3d451669bd215a06U, 0x3d4799483d727e9fU,
  0xbd48a6683decec4aU, 0x3d9a0296bcd7be86U, 0x3d28745b3dcbda93U, 0xbb1994013d4a856aU,
  0xbe1674693cc1bffeU, 0x3db2625e3dbbf543U, 0xbdba8a003c998c16U, 0xbb5bd0463c48949bU,
  0x3d961d9f3cb8e7abU, 0xbdadac453d53069dU, 0x3d4b56fdbd2ec161U, 0xbd3c67a0bdf37d69U,
  0x3dd27b9d3d18429bU, 0xbdb68f073d5d2f74U, 0xbd1b00b7bda906f5U, 0x3d3495663ddb4d6fU,
  0xbd378ae13d84276eU, 0x3d3aba39bdf379dbU, 0x3daad1f7be04142aU, 0xbd9d780cbde11e5aU,
  0xbc850eb3bd708bd6U, 0x3cb6e82a3c82d9a1U, 0xbe1d4fe3bd7daf51U, 0xbdbbae9cbdf52fd5U,
  0x3d54f92dbb3c85ecU, 0xbd1cd5183d2ef326U, 0x3d2fad80bcc4f950U, 0x3c2ade713dde319dU,
  0xbdb5c7d63dfc5554U, 0xbd8b93b03cb03052U, 0xbdbd9d06bda1f082U, 0xbda738abbc93e5abU,
  0x3d008a8bbd41c7faU, 0x3e1e57213da9ccb2U, 0xbd9f48943ca018bfU, 0x3d98931fbd81026fU,
  0xbdd3cda2bd29bcbfU, 0x3deccee9b8a30128U, 0x3d1463853bc4a31cU, 0x3e0ac1c13c6f8215U,
  0xbcbce593bd59bec3U, 0xbd8269913e1717a6U, 0xbc9b8c923dcbd739U, 0x3d3dfebcbe115a7bU,
  0x3cbe46223dc7ea43U, 0x3dccfe453db3ee51U, 0x3e02e88abe29941dU, 0x3bb39eef3db7f9afU,
  0x3da62f1b3d210061U, 0xbd82e2483d32b5bfU, 0xbdbbda9b3d1c5a93U, 0xbd1ae38e3dd14becU,
  0x3c2adc693d89daf3U, 0x3dd8bfd6bd4df3d5U, 0xbd4578d0bdb76020U, 0xbd7b2efdbd9d244aU,
  0x3b4697313d8089ebU, 0x3c8d13223cfb01fcU, 0x3da1b95b3de5aad9U, 0xbd640171be125423U,
  0x3e106115bd0176ccU, 0xbad7c7b9bd35951fU, 0x3d6f1e96bddcd31dU, 0xbd68a3993db4f67eU,
  0xbaecde38bd2f797bU, 0xbd88261ebd99e1a2U, 0xbd5b163dbaf04de8U, 0xbd7d201b3c396eb8U,
  0x3b41db663cd77029U, 0xbda0847cbc8a1453U, 0xbd029ce5be2524edU, 0xbd36fe43bd0621ebU,
  0x3cbed8f7bd1266adU, 0xbe043396bba6fa34U, 0x3ccb5ba4bc0c8ef7U, 0xbd1213c4bd8abb41U,
  0xbd3a5f70bd1fbdd2U, 0x3cdc08683d3806b9U, 0x3d8dbbc43c793df5U, 0x3c256d47bdaf75f1U,
  0x3d11362ebdc903afU, 0x3c0c9a533d0c3a1aU, 0xbcf995e23dd61a43U, 0xbd2f17b4bddfed92U,
  0xbc0bd0b43c639fc2U, 0x3d6b29c7bc8928dbU, 0x3d6f9c09bca2c9bdU, 0x3af043953d3ee119U,
  0xbc641c3dbdce766dU, 0xbd27c172bdb1eeb4U, 0x3db96b053d4352f2U, 0x3d5adbd7bdf7e985U,
  0x3c4f48d0bd899ecfU, 0xbd8ef7603c6b9aa4U, 0xbd865e24bdba6d5cU, 0x398bb6da3ca32873U,
  0xbd7d7d2dbd022deeU, 0xbdb32706bd1be247U, 0x3cdcbcccbd2229c1U, 0x3de4ef8c3ca7dae3U,
  0xbd1bd1fbbc77a54fU, 0x3dae0131bc39d7deU, 0xbd70bbf23dae85f5U, 0x3db34311bd10cf99U,
  0xbb00c966bd680677U, 0x3d097015bcd56978U, 0x3e151fbc3df40a4dU, 0xbd8d20fdbd5d1b33U,
  0xbd0666debcf59418U, 0xbc511e073cc1f965U, 0x3cc4ed9c3d083372U, 0x3d15296e3db8f053U,
  0xbd866cd6bd0f9926U, 0x3d9a51e7bd7c7939U, 0xbdd514db3b308a82U, 0xbd3283a4bad5df41U,
  0x3d5cbf973d697faeU, 0xbd6576a73c93c2adU, 0x3d8b7e58bd0e89d7U, 0xbd66a1843cff0983U,
  0xbd4274593c894345U, 0xbbbdf635bb5cbc40U, 0xbdb1c2d7bcdb6be7U, 0xbd13a4f3bbb85a01U,
  0x3cfe12fbbd6b6b47U, 0x3d397900bc37749eU, 0x3d4601773d0183eaU, 0x382364a2bc3468d2U,
  0x3bd9d16cbd8f0a28U, 0x3da355023c0fd3d1U, 0xbdb0efcf3d5224b5U, 0x3d7b6996be0071eaU,
  0xbd9d31e3bd0b0f35U, 0x3dd417ec3d5708c6U, 0x3d0f30823cded017U, 0x3d8fb0de3d19f48fU,
  0xbbed494fbd9bbc98U, 0xbd8355b13d7a5855U, 0xbc9885993ccb2cfcU, 0x3dc2b3dbbe6277daU,
  0x3d91e962bba0007aU, 0xbdc69a7cbb872bd2U, 0xbcfb82b6bdd9bfcaU, 0x3d86ae153cbcdf4fU,
  0x3d49e147bc9db2a1U, 0x3c1bdd283bc45d42U, 0xbd57e4c43cfe1bfaU, 0x3db1e4d33dcb961fU,
  0xbcbc43193cf58420U, 0x3c4bc105bca69693U, 0x3e1435b13d9c1c57U, 0xbc0d89b03df8e589U,
  0x3d50d2a6bdc33deaU, 0x3d291aaf3c7ac786U, 0x3d496b793d933186U, 0x3d6ecff2bdafe9d6U,
  0x3da9b808bd3c3abaU, 0x3cc4f1b93d1379ecU, 0x3db010f1bd3d7e91U, 0x3e02ccb73d822d6fU,
  0xbcaa5c14bd9aac20U, 0xbd27cbca3d8d055bU, 0xbd204590bd81a23fU, 0x3d62be143dc64829U,
  0x3db967113da38152U, 0xbd5a30f6bdd220c5U, 0xbd0620663b3fb9abU, 0xbc16f1333d0dc1c1U,
  0x3c6a3731bce303b2U, 0x3d2b806d3c379420U, 0x3c8140e2bd3bb843U, 0xbdf3323d3c9e75f4U,
  0xbb1fa60b3daeaf19U, 0xbc311427bc7d4f0aU, 0x3d59c4913cf61e36U, 0xbd5ef811bdbd847fU,
  0x3d084b64bbf80428U, 0x3d9ba778bd553920U, 0xbdc706733da90176U, 0xbc9aa3503b8bf3b8U,
  0xbd5f2f6ebcb4a814U, 0x3d84b4663cbcead6U, 0xbd1ffd93bd3b9702U, 0xbd1c12bcbda31cb0U,
  0x3d8f386ebd56051aU, 0xbda61893bcde8abbU, 0x3c47318fbba06e93U, 0x3b074494bd2b8ab0U,
  0x3d8c30e0bd19cfc4U, 0xbc4f0cec3b912fbeU, 0x3b9ff9cebd0835acU, 0x3c1ae178bba64b69U,
  0x3d1228033dc38decU, 0x3c36a5aebd9d969bU, 0xbd9992cd3d672c6aU, 0x3d466f193d1a3c36U,
  0x3dd248ff3d37eec3U, 0x3d269464bd388d01U, 0xba9629b1bc5825c8U, 0xbca32a103d07ebf3U,
  0xbd89eaafbdab797aU, 0xbbc7c599bc9affc1U, 0x3d80911c3de66efdU, 0x3c8a8215bdb95cebU,
  0x3dc99799bd488573U, 0x3d0363d13d8417fbU, 0xbd3cbb4abbb6d44cU, 0x3d6c87dc3cb5415eU,
  0x3dbe49363d661178U, 0x3cc834cb3d4d7253U, 0x3cd130663d19eb7aU, 0x3bbfc0ddbd455c4cU,
  0xbd80446d3c61dfb7U, 0x3d4698513d294706U, 0x3cfeb227bd6e91cfU, 0x3c31d832bb335e0dU,
  0xbd1a139f3d1b2005U, 0x3c1a30fabc7ce377U, 0x3c53d3dfbc4146adU, 0x3d2f5ea23c533331U,
  0x3ce3fbc1bbce3989U, 0x3bc60151bcbbf518U, 0x3c7bebb23d37a539U, 0xbd0899963c478cbfU,
  0xbc5fb94a3da009bfU, 0x3e2404733cbf2517U, 0x3b80e4a9bcd20768U, 0xbd63377e3d8bd589U,
  0x3cab398e3da56cb3U, 0x3cd53a703d629660U, 0x3c9387c03d611657U, 0x3d931ec0bcd66d70U,
  0x3dbcbb013de221c6U, 0xbcb08a363dc2249eU, 0xbd7aa143bd3e427dU, 0x3cd31b44bdc65a0eU,
  0x3dab98fcbaf1a9fcU, 0x3e090edbbba949d3U, 0x3e1aa5013c897b3eU, 0x3d05319c3cb05681U,
  0xbe1fb44c3d5c6412U, 0x3b97badb3cd15641U, 0xbd9d54f2bcf1a82fU, 0xbd02d3ef3ca37182U,
  0x3d532057bd2819f6U, 0xbd214800bda01dfdU, 0xbd9d06a2bc0e675fU, 0xbd9ca39bbd49b449U,
  0x3d3b85703cba7711U, 0x3da773c93d96f645U, 0xbda5cafbbccd9eebU, 0xbdb0bc03bd3629fcU,
  0xbd8ca4893d81bc9aU, 0x3ccff9b63acc3c82U, 0xbdfc01f2bcbcc2e5U, 0xbd2a9f6bbd9adba3U,
  0xbba04c343c90cedeU, 0xbc3787f2bd1d3a9aU, 0x3a70da1abcccd97cU, 0xbd1af352bdcc24a3U,
  0xbdb450333ca72e4cU, 0xbcbfd657be44b48bU, 0x3d4d9f233b01d043U, 0x3d2820fa3d1e3b4cU,
  0x3d38f53abd9f808aU, 0xbd05c3c03d469716U, 0x3d184750bca35561U, 0xbcf85224bcd40b98U,
  0x3d60b88a3d66887bU, 0x3cc1cba03b8a7a68U, 0xbcb0779e3d4a4bb1U, 0xbb50f24bbe12f660U,
  0x3cdd04813d4d3b9eU, 0x3d7b8c703dc810a7U, 0xbe24199f3d37ef55U, 0x3d5dbd773d35b7beU,
  0x3c2c39373da26225U, 0x3da8bfa63d41d262U, 0x3d00d7b93db4bc7bU, 0x3d78541bbbf6f985U,
  0x3db3f9483dc39560U, 0xbda545a7bd399a0bU, 0xbcff3abcbd6616deU, 0xbcc23ee4baac89b2U,
  0x3d215e8bbc68a53eU, 0xbd8d19303baa9675U, 0x3e01ba283d74da56U, 0x3d8f08cabcdb34baU,
  0x3c43b61fbd5a71b4U, 0xbdb49f83bd1c12b5U, 0x3d80c126bda8ca9fU, 0xbdaf08f93db057b1U,
  0x3d8308673c0f6501U, 0x3ce46eeabde319b2U, 0x3c4b63713d93e25eU, 0xbd2b6861bc71fc82U,
  0xbb007eac3c55795aU, 0xbcdeccb13db29dadU, 0xbd118d9e3d4da7a9U, 0xbde116d43c9f4750U,
  0x3d6768f1bd515823U, 0xbc4233febd7e6af3U, 0x3d27653e3d9d283aU, 0xbccdc80abdce272bU,
  0xbd9c0e1cbd13d50dU, 0xbdb8e77cbd227088U, 0xbd36f6963cb0a990U, 0xbc433c5fbdc510f7U,
  0xbdc956f4bd12edf4U, 0xbcd09145be82aa05U, 0xbc1dd034be5ad28dU, 0xbd1d18c4bd7ef220U,
  0xbc2c0946bceed771U, 0x3ce8ca57bc9178a5U, 0xbcff10fdbc33d36cU, 0xbd9571f63c829ae6U,
  0xbb87cd923d6c4407U, 0xbdaf45e5bda38966U, 0xbd8b13fcbdd51dcfU, 0xbc83c7d7be3ad805U,
  0xbc9dc9adbcafdbb8U, 0xbd9f18a83d7e4ba2U, 0xbd863fefbd5a44c4U, 0x3bce86803dadb35cU,
  0x3cb07744bc884375U, 0x3ca628d0bbdeda78U, 0x3d50e73c3ca6c7d7U, 0xbcab806c3d200349U,
  0x3c3f13cd3d2c8df9U, 0xbdb434ae3dc54f63U, 0xbc69ab793d13fa98U, 0xbd67ee2bbdc91711U,
  0x3dd82721bddff759U, 0x3c2bf685bd8229b1U, 0x3d4dc79bbd12ad5eU, 0x3d0408edbd8ec8faU,
  0xbd1c7f64bca55d33U, 0xbd4fa5ec3cf9e193U, 0x3cb07693be0bb799U, 0x3c85fe5dbbf76bdaU,
  0x3d18a5de3bfcd3edU, 0x3cbe20c93d5ad5ffU, 0x3c6f5507bd927ff5U, 0xbcce2fa3bc68de3aU,
  0xbb4a126fbd0582d4U, 0xbd88369c3cef373bU, 0x3cf7dd06bd6e4c68U, 0xbe2171b0bd2cbfa8U,
  0xbceb939e3c874ef3U, 0xbde1413fbd86b40dU, 0xbd7c7d623c463627U, 0x3d0a06e4bdebd75cU,
  0xbd7919e63d2ecfeaU, 0x3d3ecc883d911e44U, 0xbbd36ec1bc8b92c0U, 0xbd138fbfbd4d0f34U,
  0x3bfd5223bdf6ede9U, 0xbd96f5c4bd2b2fe3U, 0x3c7f6865bcb430acU, 0x3d6e2e48bd04d9e9U,
  0x3d5a766cbdf2c037U, 0x3d84021a3cd77eacU, 0x3c9ea551bd42d1dbU, 0x3daaba153dbbc899U,
  0xbd37163e3d101e64U, 0x3d294f4dbd011cf3U, 0x3c8c1e6ebda0fdd0U, 0x3d66f3053d46ce46U,
  0xbd90b49d3d538befU, 0xbce97bdfbe035b02U, 0x3d4fa6a4bd31eb3cU, 0x3d9448ca3d441d92U,
  0xbb7bad653c7dafccU, 0x3de46254bc088148U, 0xbd81172bbe120dd9U, 0x3b867dac3d50fddaU,
  0x3c0bd914bcfab7f4U, 0xbccbf967bcffc8f7U, 0x3d95dc5ebc81f52eU, 0x3d0578f3bd6ce4f6U,
  0x3e009734bd83edc9U, 0xbc65e410bd1e6c89U, 0xbd468e073d378809U, 0x3dd7d7043c773186U,
  0xbdd1f280be007381U, 0xbd393688be07b3feU, 0xbd3abf81bdc92771U, 0xbd0c62b2bbfe1b49U,
  0xbd5e96ad3d8f7cfaU, 0x3be6a0193d5860a3U, 0xbb88dd543d573462U, 0xbca619af3cadd8eaU,
  0x3b2848343d1a6f54U, 0xbd67efcdbbe99a36U, 0x3c80201c3bfc2648U, 0x3d9f7a963ce5aea2U,
  0xbc8c002f3de38bb6U, 0xbc4da77ebd4e2229U, 0xbdce43b0bc7bf510U, 0x3dbe86ffbc62cf22U,
  0x3b36fee3bca45512U, 0x3da58ae6bd263e99U, 0x3d0fadc4bd4fa940U, 0x3d3114c8bd6a117cU,
  0x3c99ee3fbe0c73c2U, 0x3d5e282a3c17f79dU, 0xbe4bf7f5bcb5baf6U, 0xbc9c715f3d1043a0U,
  0x3ce226a0bdabaefcU, 0x3c95373d3db701ceU, 0xbab53d5bbd913aa7U, 0xbd52df1a3d1483a2U,
  0xbc7dc079bdace3abU, 0xbc8ff7aa3d357710U, 0x3d5b9d20be422bf5U, 0xbd5df0b63e027cabU,
  0xbdbce4583db3c8b8U, 0xbe172db93cd5fe16U, 0xbd2eb5953ced4c06U, 0x3db02ead3d527decU,
  0x3c7d89703c314171U, 0xbcd33fdabd8de816U, 0x3daf049dbc227058U, 0x3db8e758bd358772U,
  0x3ca09a673de71981U, 0x3da24b37bc62f207U, 0x3d999549bd2b5eaaU, 0x3b94f2f1bd5fdb58U,
  0x3e018613bd881f24U, 0xbd5ddf9abb2cc507U, 0xbd7b4c573ddda9f5U, 0x3d22cd6cbd2884b4U,
  0xbdbbef613daee925U, 0xbdf31be4bcafdd52U, 0x3d10a6fa3cb0ec11U, 0x3cff5d243d004592U,
  0x3ca7ec263cc4ff46U, 0x3daabac33b21ab23U, 0x3d0c6367bceaa06aU, 0xbd3a08f1bd2590efU,
  0x3dc1ee723d97b737U, 0xbb9a9b25bd892ca0U, 0x3bf242f53d90590aU, 0x3cc7521b3c20758cU,
  0xbce0a459bc9d4921U, 0xbd24236abdeb6ad1U, 0xbdee7fcdbd2df26bU, 0xbc36d2283d6e640eU,
  0xbb3141e1bda518bbU, 0x3c8bd4603ca20767U, 0x3b9dc1e9bc99bcecU, 0xbd0bc11fbcf11af3U,
  0xbd2c8e74bd709717U, 0x3c33388dbd3e2e02U, 0xbd9552173ba49921U, 0xbd25f5403d9bc2caU,
  0x3ca4bb86bd686a46U, 0xbabc74453bef1dabU, 0x3d35eb003ca85bf3U, 0xbdacab45bc2b70ccU,
  0x3d800fa0bd6d103fU, 0x3c00767a3c23ffa9U, 0xbd532d3abd9d0b53U, 0x3d2312ad3dd7a458U,
  0xbe2a9627bd3470d8U, 0xbd2c816cbdb95bc7U, 0x3dbb2c063d252b0aU, 0xbd72f9743d8c048fU,
  0xbd7d4b403db1be8dU, 0xbd0cc9e33c345584U, 0xbc8abb2fbbb0937eU, 0x3dad5e973d9a00fdU,
  0xbd719c783d8596dfU, 0x3d2d888dbd9db381U, 0xbdbf408dbc95a88bU, 0xbb4e00ae3e038418U,
  0xbc880b343dbaf240U, 0xbd86c5173d1f07b5U, 0xbd81f5e63dd8e044U, 0x3d9c3289bdbad242U,
  0xbd7c3e81bb6c3dc5U, 0xbd0ef2a9bd9eaaefU, 0x3e0865313d42a613U, 0x3d3c4f3ab9a6c88bU,
  0x3dde911ebdeb9a8bU, 0xbd59c6d0bdcd40bcU, 0xbda45e0d3d4c430fU, 0x3c7036b2bdd99935U,
  0x3d35cc033d2dd49eU, 0xbd3bf3a23cab4a16U, 0xbda421193d5820ccU, 0xbd20819cbd4b3113U,
  0xbdc6c7943d1840bbU, 0x3d34b1e4bd759864U, 0x3d0bc516bdb3126bU, 0x3d789512bc6e74e5U,
  0xbd2e2dd9bd53ce04U, 0x3b60797abcf848d7U, 0xbd39a514bd544017U, 0x3c9fac6e3d9bf01eU,
  0x3d5a07743dd5d2d9U, 0x3d508cb7bd585ca1U, 0x3c2c3a99bdc141f4U, 0xbc52905f3dc83ba4U,
  0x3caf43543d9abf64U, 0xbcf39f40bc16cfd9U, 0x3cada3343cd8c4b7U, 0x3d0162aa3cc131aeU,
  0x3d18d5483c0080afU, 0xbd43ad4c3d75f8e0U, 0xbe0534513dcbcd00U, 0x3da41c5fbd0de565U,
  0xbc1368453df37767U, 0x3d927687be17deacU, 0x3d764c1c3d1347c7U, 0x3da1c115bd7ded62U,
  0x3cf0425cbdc9561cU, 0xbd4a865b3db4bf68U, 0xbdde20763e1a11b3U, 0xbd88aad63d38d8d5U,
  0x3d7daa46bdf476e3U, 0x3e1f65b93d7033b8U, 0xbdaf12373d633956U, 0x3dc2c74d3dc09014U,
  0xbe116a773dc70336U, 0x3da1cf473d465706U, 0xbcf82b7ebd50701bU, 0x3d8dfc5abda35612U,
  0xbd856b433d978f1aU, 0xbd2aeecdbc99c565U, 0xbd82da29bd1a3f8cU, 0xbd003bd4bdc1f465U,
  0x3d90296c3c93e932U, 0x3c8ac55ebd8d9c0eU, 0x3d0b5621bd948bb2U, 0x3c869237bce441f4U,
  0x3cd13331bdb483c8U, 0xbdb9f9b43d180230U, 0x3cc0df9f3bc7d1f9U, 0x3e0ac117bdb4e6f9U,
  0xbd3f1eca3d862830U, 0x3d195acb3dd33410U, 0x3c01b821bd6dea1bU, 0xbc2b5f48bd0b6214U,
  0xbd646d86bcfe2849U, 0xbd867f77bbd42b64U, 0x3d7f9335bcd5f2e7U, 0x3ba805613c268860U,
  0xbd93bcfb3cdc9893U, 0x3d4112623c5422a6U, 0x3c79c13e3c6ded07U, 0xbc6dbbd83caf4148U,
  0x3dc4b5543c17b0e0U, 0x3ceb52b0bd43c474U, 0x3c4def983a9fad77U, 0x3ce9a0963d3dba16U,
  0x3dbe03703d0f5736U, 0xbd43d2493d31ed27U, 0xbdee7b153d0cd007U, 0x39ce3393bca01be4U,
  0xbd61f0e13bec4b94U, 0x3da55609be2046d7U, 0x3da8d87fbd3d3559U, 0x3d8be6d6bda51330U,
  0x3d354414bd1a17cfU, 0xbdd944613e1b5c26U, 0xbd1f846b3d9102ebU, 0xbd1f66823c4b13a8U,
  0x3dd156a8be2a397eU, 0x3c7c5fc83d500e53U, 0xbd63c2563d633396U, 0x3d8788bc3c4fec33U,
  0xbe196b5d3de19767U, 0x3e14c33b3e4e5d09U, 0x3dca0f95bd7033e2U, 0xbd9086d3bd50cb9cU,
  0xbd41b0f1bd9f0894U, 0xbda6b504bdba8579U, 0x3d89f6b63d124ad9U, 0x3cd473b3bd4115e4U,
  0xbd5c17a33acc5d18U, 0xbde276b13d80db95U, 0x3c70a430bd98ed3fU, 0x3d84292cbe0549d7U,
  0x3c987a53be06a9cbU, 0xbcab85423cfec894U, 0x3d5d79b4bc2c9a7eU, 0x3dafdc163d3bb2aeU,
  0xbd5466f43b7ebfc7U, 0xbcb5753abc47c5eaU, 0xbc9b4bebbd03b409U, 0x3cf674e7bc6e239dU,
  0xbd1e1c7e3c3c1a4dU, 0xbd49f53abd28a822U, 0x3d5a515ebb35a140U, 0x3da6aa8e3c44aaf9U,
  0xbd7d1e2e3db0c0acU, 0xbd2e578cbdc28e55U, 0xbb379ccc3cd0c05dU, 0xbd38b9d03dc3b50cU,
  0x3ce570d83caf490fU, 0x3d87c83dbd8baa37U, 0x3d9f69acbd52addfU, 0xbcc60fe0bca2aae9U,
  0x3d9c2ee13d1e6857U, 0x3c848a48bd71c6f0U, 0xbda6a6183cf870a5U, 0xbcf7853dbd98b33aU,
  0xbb6731fd3da353f8U, 0x3d687fd33d2f03e0U, 0x3d5379f8bdb1a1daU, 0x3d1e23a93845d91fU,
  0x3bc468b7bc697991U, 0xbd6dc2a73d101e42U, 0x3a7e062bbb00e80fU, 0xbc90f5c1bd270758U,
  0xbd11787cba57e3e4U, 0xbb9f63a3bd40b408U, 0xba590401bd2de546U, 0x3c0f6b263d443b59U,
  0x3d947f67bd874636U, 0x3d65b7893df8bb81U, 0xbdcef645bb47d2f9U, 0x3dadb5513da27433U,
  0x3d3b32aabdcbb5deU, 0xbd7f42afbd9abea4U, 0xbda7c0f3bc0b3bf6U, 0x3d7e8de73d4a744cU,
  0xbdac19513ca43db9U, 0xbdb45c9ebd92ae2aU, 0xbd802743be1bf4ebU, 0xbc5903e63d4d0232U,
  0xbdd3b19b3d578acbU, 0x3d2c2f37bd3d9295U, 0xbd8660ab3d02ecfeU, 0xbcab391bbafecad0U,
  0xbc25ae6a3cbc8d26U, 0xbd83c2233d21bce5U, 0x3d43863bbd8fba47U, 0xbd70ed8a3c17cb98U,
  0x3932a8583d90c66cU, 0x3cc515b43d1b3d5dU, 0x3d7576e23dccca2dU, 0x3ba1548d3cb281c8U,
  0xbd3e95423d02a343U, 0xbdb7e64dbd3769d9U, 0xbc584931bd25ca6cU, 0xbd7d0ff33dc44572U,
  0x3c724f8d3dca507dU, 0xbcd08817bd169db0U, 0x3d870d9ebd6c870bU, 0xbdd658013d329780U,
  0xbd2e617d3d5de431U, 0x3d96a6e43d92bdfeU, 0x3d85aa4bbd2c12b5U, 0x3c95d8b9bd237711U,
  0xbdb3a64ebda76a4bU, 0x3d12087a3ce5178eU, 0x3b4d35873c9bd5abU, 0xbdbcad163ceb04c8U,
  0xbd8279a5bd9ef542U, 0xbdd156a6bca35836U, 0xbd9dcd603af235e0U, 0xbc4ec4783d54f391U,
  0xbdd7c2c2bd722007U, 0xbd2c2a21bd071515U, 0xbd55d1c2bd955127U, 0x3d1c998f3dd79e89U,
  0xbdedc137bdd717ccU, 0xbdab659cbd7315ceU, 0xbd591df7bd816c1cU, 0xbc9ea192bd4d7890U,
  0xbda5919fbdb2cefcU, 0xbde538b83cbf2ac3U, 0xbd0f23a33c3154c2U, 0xbd107e8c3d86e92fU,
  0xbd4ede5b3db3a27fU, 0x3d754b423cfd31faU, 0x3d5e21c2bc37881fU, 0xbd72ee3b3d393cfeU,
  0xbd5950923c281975U, 0xbd35ae5abd8786bbU, 0xbc953d71bd70c95dU, 0x3c3260f7bdb67fa4U,
  0x3dc404afbc8f2bf7U, 0xbc565579be39fe0dU, 0xbd881511bd8416e9U, 0xbcf0f14c3c66240fU,
  0xbd2675143d67eccaU, 0x3bdea93f3bcab13aU, 0xbc8c9656bd68721aU, 0xbd630e49bd8b52d5U,
  0xbc95d677bcd19e63U, 0xbd7c23f23d343bdaU, 0xbd8607da3d580cb0U, 0x3d4f71403c865069U,
  0x3db21b0ebd193fe3U, 0xbd149c5b3dbc86a0U, 0x3d89e3313c574190U, 0xbd2887603c5aaeeeU,
  0xbda65d2e3c047e63U, 0x3c44984d3d40d848U, 0x3d6dd4533cb19c10U, 0xbd8d87a0bd866ca3U,
  0x3a994b65bc040da2U, 0xbdd0725d3e09e56eU, 0x3d6801b83df7de70U, 0x3d780fc5ba17cf9eU,
  0x3e1442d9bcb7c2d2U, 0x3d5b157abda93560U, 0xbd3b2342bda9f78aU, 0xbd449d583d7e3ca1U,
  0x3c4e40a03d1214f8U, 0xbd25cb23bd605b3dU, 0x3d5d06d23d33622cU, 0xbd23c1eb3de5f6ddU,
  0xbda58f243da3e830U, 0x3dff09643d6c1986U, 0xbd2cba4dbd81ea20U, 0x3d2055e43daaa77cU,
  0x3d337ce33cdb470eU, 0x3d0661d5be1aff63U, 0xbd1e2d0cbd83036bU, 0x3da6d157bd8de26dU,
  0x3cbffec23ca9b52aU, 0xbd57ba4dbda2f454U, 0x3d988fab3cf64d17U, 0x3dad026dbd81fff4U,
  0x3df199c6bccf5959U, 0x3d8e7fcb3dcd8d94U, 0x3d64a8f3bc6f3734U, 0x3d7d3a0e3ca271a5U,
  0xbd6803613d196d20U, 0x3d4a09623d3ae392U, 0xbdd468f63c910956U, 0x3c5b835dbcf21688U,
  0x3dc02782bd6fa58cU, 0xbd09233b3d238a8dU, 0x3b7a1be53da33e64U, 0x3d85bfc2bc9c614bU,
  0xbc39260dbddcf8b7U, 0x3d67cdb63d5ec2a7U, 0x371424f8bd2a45e9U, 0xbd5503dbbda0524fU,
  0x3d96cf78bd29f22eU, 0xbd2a1f9b3d07bb94U, 0x3cc5c66bba8ac3f9U, 0x3d97d816bdead85fU,
  0xbd83ab93be1ebb57U, 0xbced35a63d8c74a9U, 0x3babe6bfbd71ef75U, 0xbc1fcfef3cd30090U,
  0x3d867681bc7e90f7U, 0xbcc2d8e13dec348aU, 0xb9d7d33d3d2d0cfaU, 0xbd22c050bc4220ddU,
  0x3d9fba65bd6ae8a2U, 0x3d4cfc44bc0d94b5U, 0x3dd86690bbfdc692U, 0x3dafccfa3d8ecdeaU,
  0xbd1feb853d2fba64U, 0xbc87fa9fbdf7c575U, 0xbd7dbaa93cdf28c9U, 0xbccac1aa3d522ee5U,
  0x3dba0c67bdd2f7edU, 0x3d7f90ef3c59b66cU, 0x3e00e18c3db2959bU, 0xbd2b0d83bd1d4310U,
  0xbdbde5be3e18e862U, 0x3c974b77bde9e910U, 0x3dbba057be028871U, 0x3d002133be0f7638U,
  0x3ca69d443c2b5c3dU, 0x3dae5c24bd6a79e4U, 0xbdfc3f7fbd3cca82U, 0xbc80667bbd84bab4U,
  0x3e2b1c2dbe162e85U, 0x3dfbaa873e08902cU, 0x3da66d813bf72babU, 0x3ccb20773d5bb9a6U,
  0x3d0681e73b7e7565U, 0xbd423c863d2b0976U, 0xbda51128bdab859aU, 0xbd4a369dbd757de5U,
  0x3d450240bd834c0dU, 0x3dd5f92cbd8b6c8aU, 0xbcbe8a77bd937fa4U, 0x3be36d383d5efca5U,
  0x3c824f413d0367d8U, 0x3caaefa93d9e8fb6U, 0xbcd5a1ba3d7fc1b9U, 0x3cf0969e3dc0bcc6U,
  0xbda96aafbcd55fa8U, 0xbb4a18bb3d4a700aU, 0xbd4bf4f53c349010U, 0x3e01b300bb09ad91U,
  0xbdddf31abe326d90U, 0xbd24d39ebd2a9f82U, 0xbc940e813c6b382bU, 0x3d7d36d9bbc371fcU,
  0x3cf69a37bd00216bU, 0xbd01316fbc125c6cU, 0x3d1b8cfbbcf5b20bU, 0xbdca4448bd3d4226U,
  0xbda7e55bbc086dbeU, 0xbe059caabda5a018U, 0xbcd37dec3ccf4758U, 0xbcb43c88be02757aU,
  0xbd9cb494bda190c2U, 0x3b802889bdb56b10U, 0xbd3f8c003ca1971bU, 0x3da8d865bd058d43U,
  0xbd59013e3cb31394U, 0x3db135ffbd4ead25U, 0xbd24a070bd47ded1U, 0x3d116a01bd88cc19U,
  0xbd2a10b53d2db217U, 0xbd670ad8bcad2c00U, 0x3d3f30d13bf49505U, 0x3d38efc73da6558dU,
  0x3db975773d90acbbU, 0xbdebb5ccbd8003caU, 0xbc24441b3c226624U, 0xbd17696abdcc71f1U,
  0xbd60f04d3c56026dU, 0x3da1b4543cf50c99U, 0xbd90a0923d63742dU, 0x3db7262f3d9e499bU,
  0x3c9375d0b977417aU, 0xbc695d19bca07ae2U, 0xbcb4b7883daacf49U, 0xbd6b81713d0815c6U,
  0xbcbedf3c383042efU, 0x3db0133e3d6f051bU, 0xbd79561f3d9bb299U, 0xbd9c73893d59d3d4U,
  0xbcd10f7e3cec1bd8U, 0xbd936b5b3e260c56U, 0xbde934cb3e61d273U, 0xbd1e3c13bdadee89U,
  0x3c57366a3cab4af6U, 0xbc494c883c95bfd6U, 0xbd8e52743d4ad570U, 0x3d98ba7dbd6fdb60U,
  0xbb0853bebd0ffe68U, 0xbd0cf20cbd027ac9U, 0x3ccdc39abcb47d5cU, 0xbcafd1173c9b2854U,
  0x3dcc7bb83be1cdc6U, 0xbdec24c3bd134fdcU, 0xbd8567e1bd42c39dU, 0x3d84d64bbd6fa180U,
  0x3c2d2f8d3d111ed5U, 0xbdbfd33fbddaa19fU, 0xbd84892fbb9db6b7U, 0x3d69d857bd834d49U,
  0xbce9854dbdae8163U, 0xbdced69bbb76d0a5U, 0x3dab3537bc55c4fcU, 0x3dad342e3df91999U,
  0xbccb8c963d47e450U, 0x3dc76674bbed26f3U, 0xbd29b14fbd182c62U, 0x3d17ac443cfac2b0U,
  0xbc2e67fbbc627be3U, 0x3d82cdc7bccf97f1U, 0x3de458f9bc84cf1aU, 0x3b8adab43e03bce8U,
  0xbd0d86833dd4f1edU, 0xbdd4250abdb999d0U, 0xbdd35b383b94d981U, 0xb9cbbb95bda750d0U,
  0x3da285993da5f1baU, 0x3d2471f1bda6cc98U, 0x3bdf61d83ce9c114U, 0x3cfd8ce93c16a563U,
  0x3d909c0c3d5e0231U, 0x3b8976103dc28002U, 0x3ce23ad23d20383bU, 0xbadc990cbd901d78U,
  0xbd27d2ecbd91f8e0U, 0xbd167b033d22b63cU, 0xbbf027ae3ce5cab5U, 0x3d980734bd4c9b2aU,
  0xbd2c34943d40e327U, 0x3caca083bc2cc1f7U, 0x3a8bf0cfba39a813U, 0x3da000e33e08be5fU,
  0x3d840dbebd646fd1U, 0x3d4dc932bd6580ffU, 0x3cfab8ae3d429fe0U, 0x3daa0c133d989f4dU,
  0x3d72a3183a1ec261U, 0xbd2327233d4b41a2U, 0xbbee95d53d482c96U, 0x3d789b4abc3fdba5U,
  0x3dc2d8be3cfbf345U, 0x3d53b8f83d965135U, 0x3dae77e53d1ce73bU, 0xbc8b54d73de4a70aU,
  0x3ddd1f5f3cec0e35U, 0xbd27ed02bda446f7U, 0x3ce5e2593dca049eU, 0x3c8fcba43d2c88a4U,
  0x3d1778b73d8848fbU, 0xbd474b613da54aa3U, 0xbda54190bc3256c1U, 0x3d0e5a933d1a71ccU,
  0xbcddd7ccbab9b441U, 0xbd0278353c50ff11U, 0x3a07e1e5bcf737f5U, 0x3d49027dbd14c1cfU,
  0xbdefa914bd1db079U, 0xbd99c6ea3d10942cU, 0xbd75d930bdc53ad5U, 0x3d447d9f3d48a1d6U,
  0x3d77e4dabdcd8816U, 0x3d05a9ffbdf264d2U, 0xbc7f5dc33d1086d2U, 0x3d443c343c34a8b9U,
  0xbc395892bcb4cb34U, 0xbd8a3e6cbda249a4U, 0xbe0866e4bd57e9e2U, 0xbd6b22573d4697c8U,
  0xbdc14f6b3c9a7263U, 0xbdb87f7a3cb30ee0U, 0x3da654d7bc379986U, 0xbdb70b5a3ccf5f56U,
  0xbba52a45bd3a572fU, 0x3d3d33fe3cde28afU, 0xbdf2af993cc45a82U, 0x3d4409a33dbbcaadU,
  0xbd31c4e239ea2d4aU, 0x3dc087d4bd034825U, 0xbd67251ebd9720f8U, 0x3c805097bcbd8748U,
  0xbcbc002c3d62d4faU, 0xbd13db7abbbb8210U, 0xbd4483253be1e8c2U, 0xbc7b4688bde51580U,
  0xbce98d72bd9b740bU, 0xbd120f293d9377a2U, 0x3d91d0c3bd9177abU, 0x3d44b29d3d826787U,
  0xbdd7ee453c9da9bcU, 0x3d54ba51bda95d17U, 0x3d6fc029bd7b6cdaU, 0x3c977441bd17f6c9U,
  0xbcac05663dd6437eU, 0x3d9744d33b4f330cU, 0x3c3d967fbd779b22U, 0xbc6ef372bc422e0cU,
  0x3d428cd1bd104bd8U, 0xbd987cea3d90fb1fU, 0x3d83ba2bbd909099U, 0xbdaba7853d85a0b0U,
  0xbc8cb260bd0dd07fU, 0xbdb801d63d8b1ae6U, 0xbde3b9e33c96b28aU, 0xbc943fbebdb714c6U,
  0x3c67136bbd5296cbU, 0x3c2506233cb8dd6cU, 0x3de72872bdcef1caU, 0xbda69c37bcabe87fU,
  0xbce473113d36b877U, 0x3d4371a9bdb2b814U, 0xbc93ee00bdc98739U, 0xbd017c953d70feccU,
  0x3d810b68bd35402cU, 0xbd69fca33d9458cbU, 0x3d9c473fbd8f1ad4U, 0x3d3903613d7d825bU,
  0x3d4dc0acbc0033a9U, 0xbdd183dd3b91f454U, 0xbdb6d5c9bde3b767U, 0x3d6b6756bda49d09U,
  0x3db0a040bdd4f0deU, 0xbd88e15a3d0d3223U, 0xbcde10113d3acd5fU, 0x3cbfb0a33d1c86f5U,
  0xbda07f7cbd727f08U, 0xba41f1663d60842fU, 0x3dbc6569bd9a03f4U, 0x3c9469713da47b24U,
  0xbd86731e3d5b6648U, 0xbdd49e36bd634766U, 0xbd42cb0abd83e1faU, 0x3d2a7dd7bd09615bU,
  0xbaf65111bdf84c52U, 0x3ca82cdf3c3a07f9U, 0xbd4040d63c49708cU, 0xbcdddf813dd9386eU,
  0xbd81830abd26f868U, 0x3d423eb7bdc04b27U, 0xbd056cc9bdbd066cU, 0xbd48806cbda14460U,
  0xbd99e17c3d8d76fbU, 0x3d8cc8b9bd7cf095U, 0xbd0ca0febdd0ed03U, 0xbd613c743c0dc638U,
  0x3dbf132cbc32a04cU, 0xbcca78683da28402U, 0xbcaa57033d5ae90dU, 0xbde00a24bd09f8e8U,
  0xbaaf001a3d7411dbU, 0xbcbfe8d3bde93c88U, 0xbd54f031bd31d0b2U, 0x38885502bcef6da2U,
  0xbd0e5f613d92b032U, 0x3d0c685fbcb76871U, 0x3e25467dbc857b0eU, 0xbd90d04b3c51639aU,
  0xbd3f3bd83b539658U, 0xbd90fc503d51d004U, 0xbdcb65a73b033c2eU, 0xbd3d2be53b120cf8U,
  0x3d8d6c25bdb1158dU, 0x3d8ae909bcce6552U, 0xbdcb818bbcf30406U, 0x3d63fb71bd5778bfU,
  0xbd6d23db3dbb1350U, 0xbce333ec3db685b2U, 0x3c9372a2bd8e3c63U, 0x3d5adc5dbca70d05U,
  0x3df014afbdd55a49U, 0x3c04ecf93dac1519U, 0xbe024a793dcb76e6U, 0x3d216149bc1fb862U,
  0xbd83380f3d449dacU, 0xbc437418bc8f15cbU, 0xbcb473743c2d69f1U, 0xbd95caccbdde10bbU,
  0xbdcf04673da9a756U, 0x3ccd10e3bc6b7d06U, 0xbda5778fbc9f4857U, 0x3d0bef2fbdd8e0cdU,
  0xbcabb095be1ba9bbU, 0xbd60bbd33dc9b8a8U, 0xbd118faebd84f227U, 0xbcbb906ebcabf385U,
  0xbd67dff53d68e544U, 0xbb865574bbbb618bU, 0xbd376695bd91da72U, 0xbbd396623d49e4c3U,
  0xbd95b500bc3da458U, 0xbbd76ae4bd89e7faU, 0x3d8bb8eebdab7151U, 0x3d1a0d49bd125e18U,
  0xbba290153da51a49U, 0x3db8203e3dcf1912U, 0x3ca85ebd3bc9c566U, 0xbd6954e53dacd732U,
  0xbb03c0bcbcaa3a43U, 0xbd190d45bcf3466dU, 0xbd442a2b3c70e1eaU, 0x3c19ec4abcc08681U,
  0xbd65fe0fbc9412f4U, 0x3da12fb9bd78ec21U, 0x3d05a80abd4c4a2dU, 0xbd2c4e4d3de480c9U,
  0xbb9ae9dc3c6e99feU, 0xbd8a206cbb1647aeU, 0x3db845973d8134dcU, 0xbc589a873da50f3aU,
  0x3d2f9a69bc9b9b48U, 0x3d69faca3d9ebaabU, 0xbc27fc44bc8c7742U, 0x3d883f423d8710b7U,
  0x3dc8a40e3c561351U, 0xbd951e943d82668bU, 0xbd617f43bd42c685U, 0x3c50d215bd2bc303U,
  0xbe051c89bcbc7065U, 0x3d997d29bdc93af4U, 0x3d023dffbe1314baU, 0x3d6b42dabdcfc860U,
  0xbbbf14113d2c2d6aU, 0xbd5727b6bdb1f868U, 0x3ba3bc31bddc07fdU, 0x3d4b295f3c930451U,
  0xbd48a8d4bd0f7f93U, 0x3ced8c1b3a73c265U, 0x3d8e92a0bd6474f6U, 0xbabf8537bc5aee84U,
  0xbd08710e3c5f7fddU, 0xbd9032d8bd3a0377U, 0xbd17391e3dc3e495U, 0xbd0e17af3b75047cU,
  0x3d814ec0bd454d08U, 0xbb3c7ab9bd186851U, 0x3c715b3dbe193e21U, 0xbb25c387bd9aa7bbU,
  0x3db55dba3be1303eU, 0xbc89e248bad62b35U, 0xbdbb4ebabe452632U, 0xbd07d958bd9e90b1U,
  0x3ca62adbbda6c707U, 0xbc00c4103d8e3b15U, 0x3d1e07ddbd43cbfdU, 0xbdaa9eb6bd5ae713U,
  0xbd2a60da3d6e29e9U, 0x3d599180bd60ae0bU, 0x3ca207dcbd861811U, 0x39952850bdae41feU,
  0xbd35ba6dbd7b458eU, 0xbd44f4e3bd04fcc1U, 0xbbe5ecc53c1688a8U, 0x3d4c9400bdc3c693U,
  0xbd3d4982bd8a0b46U, 0x3d48ba273d2d2e0cU, 0xbd409eb73c723262U, 0x3c45d61bbd30909bU,
  0xbdaabf10bd9a9db7U, 0x3c53aff1bd8177caU, 0x3d9d14013db8effaU, 0xbd6634abbda136f5U,
  0xbdcf165cbd3b61b9U, 0xbcc7e1db3cc4ec62U, 0x3e00f87abc55074bU, 0xbd7989adbd4bb142U,
  0x3caf839a3d1cc748U, 0x3cc152f7bd92bf70U, 0xbbfbc3b4bd62b648U, 0x3c89feb4bcdbc3aaU,
  0x3d7dc110bd49b41aU, 0x3b947e8bbdf76c60U, 0x3d83f35bbdd00f38U, 0x3ba38fd3bbfc4521U,
  0xbc1c70abbe1a2807U, 0xbc05dc14bd2854b6U, 0x3d67c86c3cf6c188U, 0x3d812912bc313816U,
  0x3b3908d6bc498c49U, 0x3caf8068bc5a64b2U, 0x3bdb17e13ddb4834U, 0xbb546189bda28cc9U,
  0x3c6beba2bd32dba0U, 0xbdbb2f2a3b2867ecU, 0x3b5d07f53d8ed0d9U, 0xbc8650d2bd26ca0aU,
  0x3d0ee7bcbddf340aU, 0xbdb5bd493d76d2b0U, 0xbddc0e2fbe10ce1dU, 0xbda749a0bcc9ef9fU,
  0xbdc249fd3d9b9f00U, 0x3d6bb271bc0a3aa1U, 0x3cd1b35dbd22240aU, 0xbbcf0d4e3ca3c351U,
  0xbda471d63cb72d43U, 0xbd472785bcc110d5U, 0xbc8abeec3cc58991U, 0xbdf4b4953d5bcbf6U,
  0x3ba0d8dbbcf83924U, 0xbdb190a9bc57af47U, 0xbe165b5e3dc75826U, 0x3d7686933c9fb90dU,
  0xbd8b9cf23c8e1712U, 0xbd302e0a3cb43299U, 0xbd53f2753d9b1a95U, 0xbd94b218bd8480e0U,
  0xbd36da05bdffa915U, 0x3ca22457bd29dec1U, 0xbd8ac81fbd9b9da1U, 0xbb97e58abdd20173U,
  0xbdbb9760be026078U, 0xbc0748f33c0d30bfU, 0x3cd4d6823ccf607cU, 0xbdb1a2613dc23a88U,
  0xbdcb89f5bc69456aU, 0xbe006bf9bd5ad988U, 0x3d074f743d57aa25U, 0xbd6ba6b2bc9d316bU,
  0x38c62b96bc51d822U, 0xbcb62ad1bd6827ebU, 0x3c0fa951bdca0133U, 0x3c10c3633c139d7aU,
  0xbca1ab06bd9644c2U, 0x3d10fad03d0c7e4cU, 0xbcb4cd473d3a5579U, 0xbd72a1023c6898adU,
  0xbcd71ed13e077b2eU, 0xbd0d6979bd038a5bU, 0x39f8fc3a3cb144daU, 0xbd2e3df93c0f9e4dU,
  0xbe118bd93dc94d1dU, 0xbd83d9a3bd2ead74U, 0x3d4fc2d1bc0241daU, 0x3d6bc72fbc98b065U,
  0xbdf2cba7bbe974c4U, 0xbdb39070bd6c82b6U, 0x3cb494a3bde5e0bbU, 0xbcfaeefbbbf66be2U,
  0x3d2e4f7f3c9af80bU, 0x3d9e8c42bba16655U, 0x3d20a4c43ca1532bU, 0xbd969fc1bd221211U,
  0x3be9bc4d3de24ac6U, 0x3d7b25cbbcca6593U, 0x3ce7190fbd072edaU, 0xbd496a853d30bcc5U,
  0x3d8240c8bde07c2eU, 0xbd0c4090bdc116beU, 0xbd8f3b3e3b9b8c88U, 0xbd4f75c0bc4b95b3U,
  0xbdff9707bbc12ee3U, 0xbcaed323bb87f62aU, 0x3ca5c58cbdbefe80U, 0xbd317312bd09bea5U,
  0xbd3fede2bd642872U, 0x3c1eb01abe0a6b60U, 0xbc7fba783cb997c4U, 0x3d83b2c5bdbe5619U,
  0xbd863ff9be19de26U, 0xbcfdaa6c3d9e438fU, 0xbd0f9d73bcea7191U, 0x3dd788413dd026abU,
  0x3c4b2c95bd5213b2U, 0xbdb18bb93db39e04U, 0xbdae4569bd28fa01U, 0xbd6dec39bab5fbd8U,
  0x3cb49f0a3d2140cdU, 0x3da53adfbd976e21U, 0x3daff0b93824529fU, 0xbcde09d33d8c0a96U,
  0x3ce1a3953dd02c59U, 0xbcb5ed2bbd346836U, 0x3c1e8d4b3d285cabU, 0xbd1e155d3d07cb08U,
  0x3d111c703da511b1U, 0x3d5442a43dca862cU, 0x3b12728cbcfc1eb5U, 0xbd858f20bda26e55U,
  0x3c875c423df4fc84U, 0x3d2bd4763ddb9176U, 0x3d23e0e33d822d07U, 0x3cba4d6a3d6c6ab3U,
  0x3e3bc2953c844d59U, 0xbb6352233c9c8726U, 0x3b8c428a3db45872U, 0x3c8356f6bc416c03U,
  0x3e19608b3dc6f09dU, 0x3d17f15f3e097268U, 0xbd842c8c3d02a9d0U, 0x3d4795dd3e27bcc2U,
  0xbbb7d3853d9c29caU, 0x3de0cf963d5b8c95U, 0x3daf9159bc4f08e1U, 0xbd78edfc3d69e5b4U,
  0x3b7f98b5bc9f46c7U, 0xbc5051f4bd0f964fU, 0xbc56bf993d826df4U, 0xbbc52ca0bc943f9fU,
  0xbd9ee9823cc002f1U, 0x3dbfd02c3a6c1a8bU, 0x3d83ab033d453f69U, 0x3d860f4b3c90294bU,
  0x3db3d036bbb6897dU, 0xbc76134a3da604a1U, 0xbcfa9abdbd0bcbc3U, 0x3cb6bc2bbce49006U,
  0x3c517627bcc8e85dU, 0xbdaac8eb3cb85570U, 0x3d841556bcc40ae7U, 0x3db05db53cfd56ebU,
  0xbd334940bc95212bU, 0x3d21557bbd64bf08U, 0x3cf21e053cc986eaU, 0x3ccdea5c3cb96b65U,
  0x3cf8ba063d6ac050U, 0x3d4a0a053d384a81U, 0xbce33dca3d4b9d68U, 0x3cd007c5bcecdde0U,
  0x3cede7903de19313U, 0x3d90fa8b3c42b97aU, 0xbd7dea813d5a17c1U, 0xbd60e1d1bd54e651U,
  0xbc2668f83d2448faU, 0x3d19578bbd5bbf38U, 0xbd194448bd5cdd7cU, 0xbd831c33bd771a5aU,
  0x3d715fae3c7b7d12U, 0xbd09e2fbbc6f24e5U, 0x3deb6899bd0ce722U, 0xbd69dcf5bd71e247U,
  0xbc99b6e33c93d192U, 0x3d14d7d83d724318U, 0xbc78dd713cd0c38dU, 0x3db1c7c43c2d5f0dU,
  0x3da558f6bd9ff0e7U, 0xbc2233153d800dc1U, 0x3d7c44e7ba595ab5U, 0xbd5795bf3d404030U,
  0xbd6bd6dfbcdba377U, 0x3dbaf25cbb4b39d4U, 0x3d7115c0bd0dc877U, 0x3b478e30bda5b07cU,
  0x3d8d93013de89831U, 0x3df8695f3e1e9ae0U, 0x3d187ce93ddf67f3U, 0x3d616b933d7102f3U,
  0xbd593fed3e006af5U, 0x3d99183f3c1de48dU, 0x3d3323d03c9be7eeU, 0x3c2000053d035648U,
  0x3d1111733dea4a29U, 0xbba381d43d70f5e5U, 0x3d4256713d241254U, 0xbba0c8d2bdc9b5e4U,
  0x3d58c5f33cf45bfaU, 0x3d91748bbd3b62cdU, 0x3d2c098abd6bd440U, 0x3afd77753d9053b5U,
  0x3d3548ccbd9f2cbbU, 0xbcc0f0bdbd18e541U, 0xbcf9ae41bd91b060U, 0xbd8ec90b3ce12e4fU,
  0x3d5ca0bcbd1edba9U, 0xbd8ba955bb7d2becU, 0xbd14f0c8be128b6bU, 0xbd5fbba2bc97831cU,
  0x3dc36b98bc240378U, 0xbc1c5f613dc4621eU, 0xbd1f9557bccf89b2U, 0x3dc15ebebd894adbU,
  0xbd080b863d330c6eU, 0xbd126bf53d390a8aU, 0x3cb835673daef476U, 0x3c53cae03d901ddbU,
  0xbab07be4bdedfce8U, 0xbc27f043bd749faaU, 0xbdb61265bddb66d9U, 0xbd528f7c3d03a65eU,
  0x3cf0eece3b4da42fU, 0xbcf7e7dcbe04ed34U, 0x3cadd2e53d76fd39U, 0x3d99e8d73dba90c1U,
  0xbc8ff2f2bc633312U, 0x3ba93e533bb2dd92U, 0xbd7e6c5e3c9b43c5U, 0xbca2cef33cac22ecU,
  0xbd92c99f3d2aff25U, 0x3da39a52bd62f6a4U, 0xbd1b02d33ae2ff95U, 0x3d9284e8bdecd4a9U,
  0x3d9d5f9ebd7256baU, 0xbca436c53da7e6f2U, 0x3bb32d373d2b5a48U, 0xbcb6ced63d8db7e2U,
  0xbadd9f833de735c0U, 0x3dc9e156bcb202ddU, 0xbcc9ea713db1a764U, 0xbdd3caafbd4f0907U,
  0x3dcc9aff3da76af6U, 0xbca7b3b93d11a7c4U, 0xbc413250bd82bdbdU, 0x3b3b2584bd97471dU,
  0x3d8d0fa4bd9c54f5U, 0x3ccd47733c53d0e8U, 0xbc5d2432bd49541fU, 0x3d87198b3d196238U,
  0x3d04f507bde7a69aU, 0xbdbee693bd006ee4U, 0xbc9fc5ebbcbb8089U, 0x3da3cd693d3ad1d8U,
  0xbd81b3a5bc373673U, 0x3cdebdc5bc81288aU, 0xbd0e5a3f3adafd0eU, 0xbc75a0d6bd82da55U,
  0xbdeacd903bcb75e5U, 0xbd69e115bdbcdbbaU, 0xbd3eb6d5bccac865U, 0xbd0e8eaa3dc0ec0dU,
  0x3d02c333bd175129U, 0xbdb242c23c99eb9dU, 0xbdc92a7d3b89c141U, 0xbcef426b3b1d1c57U,
  0xbe117c9ebd1ab049U, 0x3bbb13fbbd538977U, 0xb48d4580bc568e5eU, 0xbd1d6480bd9e184fU,
  0xbdc3d867bd557275U, 0xbb46630e3d8ed24cU, 0xbdb107d43cb87048U, 0x3d70e946bd1c600bU,
  0x3d6daca2bda78938U, 0x3e0112febc14cec5U, 0x3da8769c3dac820bU, 0x3d74ac7b3dd5cbc6U,
  0x3ccf3b27bd16c203U, 0x3c8695c43da1e11cU, 0xbcfdbd35bd9416daU, 0x3d702dd6bb5c0d4dU,
  0x3ceff145bc8afacaU, 0xbd8030723ce8ed96U, 0x3d8273a43d795ad2U, 0xbd640eb0bdc3df91U,
  0x3d952118bde8bce5U, 0x3d6a8bd63cb19643U, 0xbc9ff59c3d887badU, 0xbc40826e3c19c6e5U,
  0xbcd3bb49bd860f35U, 0x3d865d0dbde5604eU, 0x3d7845bbbc8e62aeU, 0xbd9ac2bb3ba5c049U,
  0xbd8226773e33e566U, 0x3c8fb2febd635213U, 0x3c9e8573bd4149cbU, 0xbd84a21cbda70d76U,
  0xbde88a3c3d5cf9bbU, 0x3d938da33d02cb40U, 0x3c1567783dc6c970U, 0xbd6a4eb73a39402bU,
  0x3bed0701bdba0157U, 0x3cf0adc7bc9f44ceU, 0xbde05053bd0d724dU, 0x3d0cd34a3d27163aU,
  0xbd0708533d6aa606U, 0x3d853c833b2a530eU, 0x3d1e3e64bd3e8f6bU, 0xbdd33c2e3de67143U,
  0xbd236f24bd42467fU, 0xbb87e68d3d12c9e6U, 0xbd455608bd4ab45fU, 0xbae9d2633d9f8ab6U,
  0xbd1f33b53d2ce5eaU, 0x3d0e2460be0c9ec3U, 0x3c95ef243cdcec72U, 0x3d9e5bbabd9542edU,
  0x3d9a5079bcf5110fU, 0xbda58df33d99c0b2U, 0x3ce99e513d64ed42U, 0x3d25c3f5bcae62f0U,
  0x3db643f3bd832badU, 0x3dc8a32d3c4d6b2fU, 0xbd6a5e2a3da4eebfU, 0xbcada5c23dafbabaU,
  0xbca48f6f3d7d2c72U, 0xbd2bfe1d3d7a99feU, 0x3cf3eddabd3a33c3U, 0x3b7cb43f3d4e689dU,
  0xbd1ce58dbcaea8c5U, 0xbce0bc563a7538cfU, 0x3d72ddadbc8c0a6bU, 0xbd7dad05bdd6aaa9U,
  0xbcad38f6bd3956fbU, 0xbc38faf3bbf7f907U, 0xbd867e563b8ffcb1U, 0xbd02068cbcc17e72U,
  0xbc52f894bd1b9e75U, 0x3cd1f22cbdae9305U, 0xbc84db163d8fd401U, 0x3ca2c36d3c9f249cU,
  0xbcda517e3d77c3ddU, 0xbddb0c6bbda833bcU, 0xbd961e8ebdbaaf3eU, 0xbc749ca03cc780ccU,
  0x3b6162803dc96056U, 0x3d94241b3cb3f09bU, 0x3d642621bb57adb3U, 0x3d6021f3bdd95018U,
  0xbbbba835bc7ec203U, 0xbd281d90bd7e1842U, 0xbdb341d5bd9e3414U, 0x3db43153bd7e1828U,
  0x3dbc60253b9d8984U, 0x3dc2997d3d679e8fU, 0x3c0a29943c8c3189U, 0xbd190d7dbc6b069aU,
  0x3a1073763ddb1b1eU, 0x3da6a9983da79fdaU, 0x3d8c688fbcec1c27U, 0x3c7ac1ac3d041a24U,
  0xbcae3f653d7c2bbdU, 0xbc24571fbb410ba3U, 0x3dc7d9cc3d3893a4U, 0x3b2fe0e4bbb4bd3eU,
  0x3d95f3303d913ca1U, 0x3d2c6d7639126af8U, 0x3d093c61bda7fcfbU, 0x3c1e0c04bc87b199U,
  0x3cfb2fb43c136befU, 0xbcccb6ea3c44a92dU, 0xbcfe0a4a3dae94e5U, 0x3cbfacdcbd0f8188U,
  0x3da7c161bd62cd65U, 0x3dcd90d4bd6dc486U, 0xbb8fa124bd17eea2U, 0xbd21dbc93be775cfU,
  0x3d6daa0f3c3d95a6U, 0xbd16f847bcbc03eaU, 0x3ddc3059bc3b739bU, 0x3da76231bd84f36dU,
  0xbd9f47aebd04da98U, 0xbcf5da53bdc83faaU, 0x3ca119633c092234U, 0x3d64ec263d9c0193U,
  0xbd133ae33d19ccb9U, 0xbcc24910bdfe57b8U, 0x3dc880c9bd51d18dU, 0x3d2e8f22bd2177c4U,
  0x3df78cf63d17153fU, 0xbd9e8e9bbdf94895U, 0xbd9e5c2bbd950c35U, 0xbc0509d2bcc1c429U,
  0x3c481d26baa98d94U, 0x3ca0a288bda08ca5U, 0x3d36be8b3c2f249aU, 0x3d4b849bbd3d82a8U,
  0xbd74011cbd43feb4U, 0x3c8d5ad23d367dbeU, 0xbd2d15fabd205be6U, 0x3d0e7d2f3c971568U,
  0xbc0662a8bd6fc9f2U, 0xbd9b31e1bd097427U, 0x3d3507733ca0d3f8U, 0xbd21b3a03cd45e32U,
  0xbcf639723ba20245U, 0xbd150851bd1dc88eU, 0x3c18102bbd809b07U, 0x3bb17cbfbcf6600eU,
  0xbc137e8f3d5398feU, 0xbd27aad13dacd9dcU, 0xbd36a7cdbce4bd7eU, 0x3d9c86a43e0928f0U,
  0xbda1c4f13e0b7edbU, 0x3e2b1d93bc1470ecU, 0x3e39792bbc58c8f7U, 0xbd292a4d3da04dabU,
  0xbba0f4dd3e21d765U, 0x3bfb0eabbc95c3aeU, 0x3d9878573daad044U, 0xbd5d9fd53d0a0a03U,
  0x3e39f6b9bd3fd1feU, 0x3dc65748bd3dcc81U, 0x3d202257bc430299U, 0x3cbde6b73db28732U,
  0xbdfb60ebbc192774U, 0xbd1f2d0d3d9e434aU, 0xbe058512bcaf9045U, 0xbd6d1646bd1dd036U,
  0x3db42a3f3c8dce71U, 0x3c1dd4ea3bfc7028U, 0x3c3385e63bf5989aU, 0x3c9699423d3af868U,
  0xbd7c3d41bd24c198U, 0x3d446002bd84c613U, 0x3b2cad133d065fb3U, 0xbce2e280bdae32fbU,
  0xbd54fe40bb7972fbU, 0x3da2478fbcd5c3e8U, 0xbca1b7763c81d9ddU, 0xbd330e343c76ebd6U,
  0x3d415261bcf3499cU, 0x3dbd61153c94938aU, 0xbd0e2bb5bd96caf2U, 0xbd3c6358bdb365f7U,
  0xbd1a3529bd4353bcU, 0x3cc15138bd8ffe7dU, 0x3a248601bb8a567bU, 0xbd4ed790bc42b61aU,
  0x3d22801dbca4051aU, 0x3b0ed8a23c538ce6U, 0x3d75c9d43ca92127U, 0xbc911261bd4cf750U,
  0xbd2bd18f3df83f87U, 0x3d6d862e3dc75db5U, 0xbd5a0070bdbe197dU, 0xbbf791033d90e8aaU,
  0xbd989824bd026508U, 0x3cf127b0bc373905U, 0xbd2f74c93d01e775U, 0xbd1d26cb3dced8e5U,
  0x3c9a20353ceb979bU, 0x3da69afeba2dc751U, 0x3df75dd6bd970e56U, 0x3da4795bbc249ee1U,
  0xbcbebf5f3da3858cU, 0x3cb955963d720005U, 0x3d36ea133bad3807U, 0xbdc07ac3bd761324U,
  0x3dd7255a3c8ea3a5U, 0xba94c371bc91472aU, 0x3da5a8c5bd30b238U, 0xbd3912c33dcce98cU,
  0xbb46c1cdbc63591aU, 0xbd13562d3cd1386cU, 0xbcfc4fcfbd69d78dU, 0xbdbbc67a3d453399U,
  0x3df5bab4bcdace7dU, 0x3d274f78bd06c739U, 0xbd8e9db83c40af8cU, 0xbd2b6b633b53ed6fU,
  0x3d99931b3dc8fabfU, 0x3e1ebaa33d0d0dc6U, 0x3d695532bd7398a9U, 0x3c74e3623ddbfe2fU,
  0x3d3cd41bbd98b7faU, 0x3d3f95af3d6042f9U, 0xbd41f54ebd7168e8U, 0x3d814772bc260bd8U,
  0xbc87336b3d9ca2a4U, 0x3cf107c0bcc0a286U, 0xbc1f9c503bc545dbU, 0x3ba0d7dcbd85cf12U,
  0xbc98b9333d6bc39dU, 0x3c25cd4fbdbfa846U, 0x3d69d8c13d13a643U, 0x3a97a3e73cd7f551U,
  0x3d62f1163d6b1de4U, 0xbc7ea13f3cfb7934U, 0xbc404c6f3d431464U, 0xbdca12213d9c7763U,
  0x3da05f393cc929d4U, 0xbd92a1e63d1139a9U, 0xbb8ff8abbde036e0U, 0x3a025d483d3b8787U,
  0x3dbfa085bd44be90U, 0xbdb140103dd72812U, 0xbccf80e93b11c1b3U, 0xbd4a015c3e30a05cU,
  0xbd0da1c93df2a24dU, 0x3df54e603d5f6962U, 0x3de0d2f0bd1d2121U, 0x3d28b1613e0c8664U,
  0x3d15347c3d9891f0U, 0xbde0facdbd865731U, 0x3cab6731bbb03ab5U, 0x3d5c8331be1df4d3U,
  0x3e770163bda0c399U, 0xbd892a6cbdd4ea25U, 0x3d8723f03db08c52U, 0x3d91c3353df26f7dU,
  0xbdd50b46bc1dc927U, 0x3ccf6b8abd3a676dU, 0xbdd09af23c5ee462U, 0xbd9c119b3d84bccdU,
  0x3d6207d4bd9cafb1U, 0xbd9d6b993c4434ccU, 0xbdadec713d821973U, 0x3c2fb5903bcacd7cU,
  0xbda0f9563d8ec857U, 0x3d970f44bd496d73U, 0x3d41755bbdb71c0aU, 0xbda26527bce1db47U,
  0x3d87dd63bd7c606cU, 0x3d560409bd41f279U, 0x3d08e5cabdb1c4baU, 0xbd4f9f0a3d06a2cbU,
  0x3ccde435bd24a15eU, 0x3d89cd1b3ae5dd6dU, 0xbd29e557bd881ea1U, 0x3ccb6677bd24e186U,
  0x3d432926bc7ddb0aU, 0xbc3c010dbcd0b745U, 0x3c94e8d5bdae7963U, 0x3d418ffabd12ed38U,
  0x3d370441bd5530f1U, 0xbd0e749e3dbbc633U, 0xbca6b6d93d9094f3U, 0x3d84a36abc362fcfU,
  0x3d75e1473e0ba542U, 0xbaf1b28dbc5d98c9U, 0xbc5accd4bd21cfb7U, 0x3d24235a3d65622dU,
  0x39659d65bd3f0f1fU, 0xbc9bc9553cdb7635U, 0x3d93c7a2bc387caaU, 0x3d9238cb3d8ebdaeU,
  0xbde24dec3da00531U, 0x3d13cdf7bd0e5687U, 0x3e54cec73d56b6f1U, 0x3ccbffc53c15edf2U,
  0x3d3309e63dce3893U, 0xbe0210423d833a5eU, 0x3cd150363d4c8007U, 0x3d55cbe8bd55272dU,
  0x3dd62eb63d1c7e7dU, 0xbd14e6abbe1219f4U, 0xbd105d62ba217d6dU, 0x3e06450f3dbac45bU,
  0xbc0947863b737c9eU, 0x3d0008e2be0e88d8U, 0x3d178855bc694510U, 0x3d5525763da23f9eU,
  0x3d6718f63d8960a5U, 0xbcd8d879bcaf7aa1U, 0x3e091b383cdf5d1eU, 0x3d3b2f833d8f7e93U,
  0x3d1006f13dee669cU, 0x3d2848363d02f1e8U, 0x3b7b9b923d42ac6bU, 0xbd67bcffbdde8e94U,
  0xbb790625bd889d47U, 0xbc128e23bc21c8f2U, 0xbd1dc2073d76d214U, 0x3be5031e3cdcf2f2U,
  0xbd46d2a73d695aecU, 0xbc4f159c3d35b85fU, 0x3cd31fa4bb57f3eaU, 0x3d8282c0bd98475dU,
  0xbc021b833d78125bU, 0xbccb6942bcde0e30U, 0x3a8a5576bdd882d2U, 0xbd3bd70aba8dff8bU,
  0xbd506a90bd741d90U, 0xbd245422bd439d2bU, 0xbd0be86bba978f64U, 0xbde34edebc569816U,
  0x3b7f48e2b983cfa8U, 0x3cdfa1623d30ddecU, 0xbd34b818bb1aed83U, 0xbd01494ebc0279ceU,
  0xbd4d37f7bb2288e1U, 0xbdc454b43d582e87U, 0x3ca4f6c93d8d61adU, 0xbcce28f53da044f8U,
  0xbcf9ac093deeece6U, 0x3d6f231fbdb1b595U, 0x3e4d5ff23cb3cd3dU, 0xbcfedc823daaa12aU,
  0x3cedb3b53d8bdf4cU, 0x3cb589663d7bfaa1U, 0x3dca3e7c3da5e2a5U, 0xbce69631bdaa8a45U,
  0x3e4b5c2c3d178361U, 0xbd08ad98bda5c3afU, 0xbd995bf33da666a2U, 0xbd0d2f983d3acfecU,
  0xbd7dc0063d7335afU, 0x3d87a28fbd1b9a52U, 0x3cd6f3203c9f2917U, 0x3c2be8ea3bfa09a8U,
  0x3d672e083d8d844cU, 0x3ddea2aa3daeb3c3U, 0x3cf0c40fbd95d94bU, 0x3d8c3d2b3d885da7U,
  0x3dfbbe5a3dc9d2b3U, 0x3e044f833d3e99b6U, 0xbc625c16bd3fcb20U, 0xbdfe0fad3c91e4dcU,
  0xbd1e51cabd801e1aU, 0x3c0cb60e3d989396U, 0xbdc257333b9cb7e6U, 0xbc92086abdfe64e4U,
  0x3ca53178bcf095c7U, 0xbda57e573d87e620U, 0x3d63d6bcbbed8eafU, 0xbb9f659b3d194b2fU,
  0x3ccbd4e63de1d5c5U, 0xbc918cc03d73bd7aU, 0xbd78fb263da34038U, 0xbcf016573d06e6f4U,
  0xbe04ad49bcc430a5U, 0xbdd80b6bbdcfa45eU, 0xbcf29795bb5250fbU, 0x3d0363ce3beab2c0U,
  0xbb8983103d4a6a0aU, 0xbcea43853d218771U, 0xbc84126fbd36af11U, 0xbc5cf73cbd4afdd5U,
  0x3c75e1543c38480bU, 0x3d9b63adbdaa4bd1U, 0x3d6a97723d60761cU, 0x3da1771bbd102e4dU,
  0x3c5d0b883c4d2817U, 0x3d58c66bbcd263f2U, 0x3ce30149bdf75a16U, 0xbdc762a43d506505U,
  0x3cc11db0bbe247d9U, 0x3b8b6caebd1cee05U, 0xbd317b2c3d7c454fU, 0x3d70e4a63c2d5cd1U,
  0xbbe656ec3dc1c7a9U, 0xbd97de76bd9434b1U, 0x3caa8f9e3dde39eaU, 0xbd25c7fdbd6b39bdU,
  0xbdba2d063d762f3cU, 0x3d4e2c12bd3afed6U, 0x3d80d991bda5845dU, 0x3cc6018ebcd85ce3U,
  0x3d70c143bc40f80fU, 0xbbbce214bd517771U, 0x3d368898bd05507dU, 0xbd87d917bdcb8698U,
  0x3d92fadd3d6db556U, 0xbd430c8b3d698fecU, 0xbd97e9e6bd4e2b3fU, 0xbdac838dbb8df5faU,
  0x3d959b86bd41f1efU, 0x3dbfdb34bddc1898U, 0x3c89a9a9bc2187c2U, 0xbdc62340bd8d76f4U,
  0x3bf83fa3bca5c605U, 0xbd46a1fb3b946083U, 0xbd20257c3c7ec43fU, 0x3c3fe176bd118887U,
  0x3d2fb4273d48d954U, 0xbd52defc3cd38cceU, 0x3c38b28ebb95ea92U, 0xbda9bf90bd937854U,
  0xbcc1be0a3da6be47U, 0x3db210443d81e613U, 0xbd9620cfbda79fe7U, 0xbd9239933e0481c0U,
  0xbd1447093b8ddf81U, 0x3d4b0b21bd5ba8a4U, 0xbbb6a2a03d23e52aU, 0xbdbf884cbd925857U,
  0xbc7d90db3dc40c0cU, 0x3d87ec29bd9475b0U, 0x3dd16dffbd9db64dU, 0x3e0ed3b1bd9f166bU,
  0x3d9d44cf3db8a49fU, 0x3d9b97fa3caff9efU, 0x3dd6f87abdc7d610U, 0x3d7561aa3c871fe8U,
  0x3c829be4bcd9e318U, 0x3d626d7ebce00ccbU, 0x3ddd08d43d4d7a7aU, 0x3da7ea9f3c933ca4U,
  0x3e1cb71f3cc5314bU, 0x3cd8b5efbdac5d4eU, 0x3d68f64dbd5d2832U, 0x3dd622e83e358378U,
  0xbdc692c33dfc0d26U, 0x3d7e3b34bc31be9cU, 0x3c883d553d2b45cbU, 0x3df524373d840572U,
  0x3dc946ef3de4502fU, 0xbcd989b7bb4b0686U, 0x3d9039d9bbb1eea2U, 0x3d083afcbbad0e46U,
  0x3db385123c4db2beU, 0x3b833a2a3d15296eU, 0xbce64ea03db66e2cU, 0x3c2d2eeebbf24c68U,
  0x3da08140bd679433U, 0xbdb2f8e5bd9730eeU, 0xbb4547053cc9a017U, 0x3da7b171bda08bd2U,
  0xbd25b1a83d0901e9U, 0xbc13de603d4c8f3bU, 0x3d1705393d9d4cd6U, 0xbd9780e3bc07d729U,
  0x3d6d546a3c13ef86U, 0xba57675dbd09bf5cU, 0xbda3aeedbcce211dU, 0xbd69ac213d759d7cU,
  0xbd7c20b6bd6bd5f7U, 0xbc6f2b95bbb1f759U, 0xbc8db562bd90d72cU, 0xbdf570633dd95ba4U,
  0xbdccf0943b8ff14dU, 0x3cf52e7bbcb86728U, 0xbc198d73bd8897daU, 0x3ca7d39dbda2b21fU,
  0x3d2a28983dcb3254U, 0xbd215624bd2c1a31U, 0xbd6a20cdbda239aeU, 0x3df403db3d0abf6bU,
  0x3dcc58bc3e2b9e6bU, 0x3db2c22f3de81a84U, 0x3dbed87fbd91bb30U, 0x3cf60e703dcec81bU,
  0x3c8af284bbe257ccU, 0x3b47e8e2bd114b29U, 0x3ddb81b6bcd13f1fU, 0xbd18ee78bda94662U,
  0x3ddea7cd3d9e91aeU, 0x3d162d2c3ca86b29U, 0xbdc10d123d40deadU, 0x3db5abc43e228603U,
  0xbdbcd3393d0ec8fcU, 0xbdd84b673d31b0d0U, 0xbcf952fbbd4829dfU, 0x3d994b9fbdb50defU,
  0xbb556c2a3d8393cfU, 0x3dca3fccbd8c43e2U, 0x3e17b940bd3e506dU, 0x39906a993dbef06aU,
  0x3d37af5d3db34a75U, 0x3d4884123d407cbdU, 0x3c815f503dbc186dU, 0xbdc64d32bd963969U,
  0x3de457333d272649U, 0xbc96f64abd1ac75aU, 0xbd4ee085bd758503U, 0x3e109f38bceea1f0U,
  0x3d26edb43d49bf90U, 0x3d21c5d63c65567aU, 0xbda969be3d83d598U, 0x3d62cc3c3d15566eU,
  0xbc7a7e0dbd5292f3U, 0x3d525232bd22650eU, 0x3d2dbf5fbdc8e476U, 0x3a817177bda82ae7U,
  0x3c3573a83d214f79U, 0x3d0dcb0b3da9dfc7U, 0xbd6bc4abbda3822dU, 0xbcbb873bbc54ee17U,
  0xbda67571bba55b3aU, 0x3d99d9f13d52690dU, 0x3da19ae13c649788U, 0xbd8a0b77bcf9c8d8U,
  0xbd02bc3bbd8eedefU, 0x3d0cb6de3cd45ed5U, 0x3b2d32673cbb1e25U, 0x3dbdfdb33d3f6789U,
  0x3cd405c83e1336d9U, 0x3bf8eff5bd626944U, 0x3dce819fbca37519U, 0x3cbfa2373b69f53bU,
  0xbc99ae463e054274U, 0xbd0f2fb7bdc5a42fU, 0x3caf8ef1bc2d5ddeU, 0xbd45244a3ccabba9U,
  0x3e5265fb3dc878a9U, 0x3d10edccbda65af3U, 0xbd09f5533dfc4b66U, 0x3dbc22d83d3d328aU,
  0x3d8c87ce3d724fb9U, 0xbc4a364dbd066ac8U, 0x3d6788ca3d6d3659U, 0xbd225c6ebae4f639U,
  0x3d4798d53e0ad531U, 0xbc1fe6363d64723dU, 0x3d3fe4753db4be17U, 0x3d964aeabd58ee5cU,
  0x3dc42184bcafdd6aU, 0x3dbfd9a33d2e9d38U, 0x3d96c10d3dd1b588U, 0xbb957119b9e7251dU,
  0x3e0e9ddabd578156U, 0xbd4032e4bd2b1d90U, 0xbc713ed9baef2eb9U, 0xbd281023bd49d6afU,
  0x3d6543343d0ab7e4U, 0xbddf2a34bd1d57dfU, 0x3d4008f83cc5921dU, 0x3da64cfe3d83ebaeU,
  0x3db52c333d91a978U, 0x3d341cc7bd75f057U, 0xbcec61debc89b918U, 0x3d95de063d06f8b9U,
  0xbd3b6791bd4014d7U, 0x3d2f61b53d5f79ddU, 0xbb7253f73d0d5a62U, 0xbda9315abcebd8abU,
  0xbcfacc6abdc448efU, 0x3d01d40bbcfa001eU, 0x3cf030583de3b109U, 0xbae1dff7be0f49ecU,
  0xbd779f8e3c93a8eeU, 0xbdf2834c3b464200U, 0xbd85a5efbdcdd171U, 0xbd18c8a23d064750U,
  0x3c2c54e93d3f6361U, 0xbcb929d53da51a47U, 0x3d4eea84bd3f322aU, 0xbcfbd9313c991d21U,
  0xbdb407a63dab3340U, 0xbcc09d49be1c0e22U, 0xbccf5bc03d51ea3fU, 0x3d86ccb9bdd78e9dU,
  0xbc2d6c69bcb5b9caU, 0xbda1adbbbd1f5b47U, 0x3d2f45623c0ec753U, 0x3ca780a1bc8b63f6U,
  0x3d3d14703d34e56cU, 0x3be5709abd31072dU, 0x3daaa0e43c60341cU, 0x3d0d39c23d966b31U,
  0x3d2c47983d82aaa6U, 0xbb48f896be09121eU, 0x3d9180f63d66b225U, 0xbcdebacdbd6787eeU,
  0x3d17da953d7afaefU, 0x3d528ae8bd68afb6U, 0x3d1c59d7bbeef79fU, 0x3d6355de3a9a64c1U,
  0x3bcd17783d98ef70U, 0xbb67c014bc2628d6U, 0xbce65dbcbc0ae261U, 0xbdc516143e067bd8U,
  0x3d43a1193c324c40U, 0xbce9f32c3ceb1b16U, 0x3be24d213db7f495U, 0x3d501a073c54e97bU,
  0x3da630443db2b481U, 0x3d7c38afbcaf4cf9U, 0x3dc1dcc93d6ad077U, 0x3d012b0b3c2eee0cU,
  0xbcf54c40bd6d2372U, 0x3daf6546bd0ae645U, 0x3d4d160a3d6ba54fU, 0xbde6a2d43cbee312U,
  0x3db681273d758bf9U, 0xbbc6066ebd975368U, 0x3dac01403ce105b9U, 0x3d8b93fabe28f780U,
  0x3cc940273d8c5678U, 0xbdce081e3dbade37U, 0x3cf3ed11bd4825b5U, 0xbd7b992239a4d37fU,
  0x3d88c43d3d63e975U, 0xbd14cb7dbcf6bc43U, 0x3c1af877bdff32ddU, 0x3dbf4f3b3d6b60a4U,
  0x3d5006543ce64028U, 0xbcb31cbbbd0e494aU, 0xbd9f1903bcaa6f50U, 0xbd99061f3c56ef30U,
  0xbd5e7bacbc649180U, 0x3d2a8fe4bdd5aca1U, 0x3d718a353d62d405U, 0x3d8eeaa7bd44a6aeU,
  0xbd864a14bd09727aU, 0x3d6d586b3d600c71U, 0xbcc5a5f93d0153b0U, 0xbd5873523d3b5e49U,
  0x3d2f2d4fbd846c25U, 0x3d81c8433d39a2c1U, 0xbda66bddbd1582b7U, 0xbd8ae878bcfb3df8U,
  0xbdb5fd45bd327143U, 0xbca1369c3dc90843U, 0xbd9b3af5bd926bceU, 0x3da517f73c9f94d7U,
  0x3d8e241c3cf4cf6eU, 0x3d72813d3c45b074U, 0x3d2c9488bd5c5da5U, 0xbb86efdf3dc6645eU,
  0xbc911acc3c9d9e09U, 0x3ba4f0c93dc9c503U, 0xbd5676ea3db4eb06U, 0x3c1c7844bb514e1dU,
  0x3d9e86d9bca26919U, 0xbd28e7b83d561bc9U, 0xbd6a34113c7c76c2U, 0x3d5421233d7449fcU,
  0xbd12d868bd8ed450U, 0x3da550533d4b517dU, 0x3d04570dbae7ddecU, 0x3b977617bce7491fU,
  0xbca476763e118d12U, 0x3cf9828d3d3a03c7U, 0x3d3edc633cdd9e5fU, 0xbb3acc18bd609b92U,
  0xbc74868dbdd368efU, 0xbb4b2adc3db01591U, 0xbd65521f3c30971eU, 0xbcbc4ebc3cd5efe8U,
  0xbce3d12a3d48422dU, 0xbd6a69c13b143366U, 0xbc2d8847bda76efbU, 0x3c6327b2bd1a0969U,
  0x3c96cfed3d79c9fcU, 0xbd4fc473bc5b7eb8U, 0xbd160fc63cd0459cU, 0x3ca1276cbdd76f50U,
  0x3d6bbe3d3dbfdf56U, 0xbdac562ebdec55edU, 0xbddb991a3d285fb4U, 0x3d939aab3dcdbfabU,
  0xbd9bb352bc2cdc5bU, 0xbe337e7b3c258fe7U, 0x3d43fa65bd173225U, 0x3bbe0c1ebde67d5fU,
  0xbd75e5fabc8577b2U, 0xbd86f368bc2df289U, 0xbd8589543d8d3aa5U, 0xbd3998dfbce7b45bU,
  0xbdc51bedbdd09ca0U, 0x3cd5ba00bdb7e814U, 0x3c7709f8bd78b57eU, 0x3d35382e3e08280fU,
  0xba95ff37bd26d342U, 0xbd58a299bd815c3dU, 0x3cdc573dbcc715dcU, 0x3c4dbaa9bd739a17U,
  0xbd9e4929bd23dba6U, 0x3d53dffebdcfe62aU, 0xbd53b727bc960709U, 0xbd402d27bdaa5030U,
  0xbd873fafbd056d5cU, 0x3d8fe344bda3c055U, 0xbc1c3713bd1c876bU, 0xbd2466fe3cf22a0fU,
  0x3bf060d1be247fa0U, 0x3d1afe5d3e0a08b3U, 0xbd5836d6bd5c902bU, 0x3b522aaebc8477bdU,
  0xbceb3c443d3d3022U, 0x3ce39b67bc92f6dbU, 0xbd8773f93d9cf4dcU, 0xbc8d5d6c3d05601dU,
  0xbacc430cbe077218U, 0x3e20c5dcbcb52a4dU, 0x3cdf5af53d7c5646U, 0x3d56cde0bd32f8a4U,
  0xbdbe424a3d4c171bU, 0x3ba0abe63d662961U, 0x3d930c3b3aaed952U, 0xbcd892383da32e6aU,
  0xbdbf45423d7eff04U, 0x3d306fccbc9c8074U, 0x3d2747403dc0c1e7U, 0x3e0b1df8bda28288U,
  0x3d4a5361be053fe2U, 0xbe0a95163cc927f7U, 0xbdd911513c19f699U, 0x3d52b8fd3d2c5bccU,
  0x3c865d42bd57b981U, 0x3c907723be2c5d3cU, 0xbd4a7796bde20d9fU, 0xbdb2d2513d75cb53U,
  0xbd9bd7db3d65c68cU, 0x3cd55244bd1b8920U, 0x3d7639e3bda307f1U, 0x3af93c7b3d9e030aU,
  0x3d1be9c53c4a1192U, 0x3c7968293d3b43beU, 0x3c960437bd0659b8U, 0xbe032bdebdac0e45U,
  0x3d875975bca9a534U, 0xbdb608e93cacb9beU, 0xbe2b6e39bd83cb21U, 0x3d73e9bfbc356b26U,
  0xbd34d5353d33d82bU, 0xbcc04eabbd29e41eU, 0xbd36047c3d2903c9U, 0xbd4650ccbdf08c7cU,
  0xbd5c60febd17d765U, 0xbcb17affbe1f6983U, 0xbd563524bdd657f4U, 0xbd96febc3c5a6ad0U,
  0xbb914d5cbc688cbaU, 0x3d58c6133da44554U, 0xbd542dcebd59f6c8U, 0xbd3bbc49be045e91U,
  0x3d89cea33b6b7fedU, 0x3db8d3d13ccaf86fU, 0xbd350f08bceee977U, 0xbcb11b14bd6c90a9U,
  0x3bb1517abd1b698cU, 0xbd1569383dad0892U, 0xbdcf45713c81b072U, 0xbd85fc0dbc10fbb4U,
  0x3bf49539bd0ff2a3U, 0x3d83ea2e3d6a8bc2U, 0x3d4efc7c3d93b5ecU, 0x3d9605613d349c6aU,
  0x3cda23c93d0e8242U, 0xbb777e983d30cc5cU, 0xbcbd50f33bb8cd49U, 0x3e41e5ed3b9cbddaU,
  0x3d16855cbdc28f20U, 0xbd985ae3bd299229U, 0x3c5acd933dabc952U, 0x3bd8ee563e2369e3U,
  0x3b2b4b623c0a89d8U, 0x3d7c223dbdb76e99U, 0x3ab23fd73c3dc05dU, 0x3dcb4da3bd776bb9U,
  0x3badda3a3d900a34U, 0x3d638e643c8833b3U, 0xbd6ef1f83d8020e8U, 0xbc14dba6bd1b93c5U,
  0xbcc43343bd32d93eU, 0x3d7edcbbbdaede6fU, 0x3cadb1843bd18fb3U, 0xbdf70666bd9e2c0bU,
  0xbd0dc52ebd840d4aU, 0x3c9da7d53bb62689U, 0xbe128b79bd3586bbU, 0xbd9bc7143d995d6aU,
  0x3d42db003c41c3ceU, 0x3d41fbeabd747525U, 0x3bf2eac4bd845528U, 0x3d1869b1bda458feU,
  0xbd6b6f35bbe027d7U, 0x3d3af973bdf2633aU, 0x3c8ffcc9bd750e1fU, 0xbd0f3f48bca6ddc3U,
  0x3d86a2693bf0867cU, 0x3da67d723d471c5eU, 0x3c589c6a3d0965f2U, 0x3d3d02b7bd63818aU,
  0x3d08a1a13cc55be2U, 0xbc7f75063dcb8db2U, 0xbcc3968f3d00d780U, 0xbd0d3c08be004599U,
  0x3e2849cfbda40d5cU, 0xbd6a40e23d78392eU, 0x3d8b51953e065109U, 0x3c9d285b3b9c747bU,
  0xbda06f243cbefa66U, 0x3d02e3e23d8d4d48U, 0x3c453ef9bcc4de87U, 0x3bf1dc483d6b7ae7U,
  0x3d762db5bc0a51fcU, 0x3daec21a3db88c1eU, 0xbd6a35febd5bee22U, 0x3c99f4223da6eb61U,
  0xbc5fb8dabd65e7b1U, 0x3da3b7dfbcc7db19U, 0xbcf04c7f3d1782e7U, 0x3d3cfb7b3cd27be4U,
  0xbd7de6b7bd176a60U, 0xbb8c0d4fbd1cb962U, 0xbc42a2343cde9655U, 0xbcffa0ecbde2681bU,
  0x3c968d11bdd85d28U, 0xbc448b333d34df76U, 0xbdc66efbbbb27004U, 0x3d08b5363c5ad2d4U,
  0x3baa697abd620ed8U, 0xbe05df99bc716acfU, 0x3cac3e5f3d47c337U, 0x3d9709d23b0670cbU,
  0xbdaf026d3c566b9bU, 0x3d724f8f3c787341U, 0x3cbfa000bde0f373U, 0xbd2a7f34bdb615c4U,
  0x3c7c1a753d14f6a7U, 0xbdae9ae7bc726c6cU, 0x3b30597d3d5740dcU, 0xbc1ccaaabd4f7001U,
  0x3e159ca33d8ba9b4U, 0xbd8146d93c8d2ddeU, 0xbb84883cbca873b2U, 0xbd2a8f543cabc6bbU,
  0xbc1f5e663d924227U, 0x3dee2b35bcaa9472U, 0x3b46fbe4bd06e399U, 0xbcd80d703b9c1ad8U,
  0xbd5448bebd4fa311U, 0xbccbf8dabd00adb7U, 0x3dd20b3b3d1fe521U, 0x3c806bd63ab7642fU,
  0x3d6edb6abdc499dcU, 0xbd0378f63e17d7aaU, 0xbe18561abcb23922U, 0xbcd5a8b13df25f2fU,
  0xbd5ceb523da260acU, 0x3d9ab4953da756c5U, 0x3d2253f7bdb92243U, 0xbc52bf7e3c72114dU,
  0xbd112ff43da74406U, 0xbd39cb20bd7f4f0aU, 0x3dc398323cfb8d39U, 0x3bfcffb93d214a31U,
  0x3c11f6eabd8eef7dU, 0x3d18cd52bdc9b9adU, 0x3de2f7623d02fa74U, 0x3c3d9173bd90cc6aU,
  0xbd01bdc53d85b328U, 0x3c96ca623c0dbc14U, 0x3de4bef63dcc1948U, 0xbd2131813b8534c2U,
  0xbd192d66bdc728ecU, 0xbce612e73d6f95c4U, 0xbcb5deb13c35c900U, 0x3bceb44d3ddcc97dU,
  0x3d214a023da830abU, 0x3c8a8792bcbb430aU, 0x3b07af29bc842f70U, 0xbcc1d9be3d04ab47U,
  0x3d6ff3af3cc09192U, 0x3c9169c3bc9c81c4U, 0xbda186fa3cad79e2U, 0x3d0047243db9effcU,
  0xbdbe86973dd8df17U, 0xbdea8dbcbb6ed0d6U, 0xbcf04bdbbd9dbc36U, 0xbc65eef1be15c1c4U,
  0x3d8f90d13da2719bU, 0x3d56ac53bda8276bU, 0xbcbd0095bd8352b0U, 0xbd33ebf13dad1711U,
  0xbccf9c98bc88178aU, 0x3de556b139b60652U, 0xbd5ebea23d11f991U, 0xbdc94b7b3c358e5dU,
  0x3d959e46bc474974U, 0xbce1d2ee3af8810aU, 0x3d2134c63be22272U, 0xbc9f2d23bd8d17c5U,
  0xbc15d8a7bdde08d1U, 0xbde737a33c1dbd58U, 0xbda933513d8c6702U, 0xbd61dfbb3df9c798U,
  0xbc900102bd2f51f1U, 0xbc894062bb136885U, 0x3dc8854abdc81a36U, 0xbd934238bcdc8e22U,
  0xbd0d4fda3d41fb71U, 0xbdf2dec3bde68b24U, 0x3ba297c0bd661568U, 0xbd5ae527bd9d0510U,
  0xbcb4a3a8bd5c94a0U, 0xbd50293bbdc98b66U, 0x3dc2bd683d09bf3bU, 0xbbf2031abd95c724U,
  0x3d69b5d23de324cfU, 0xbaf2d593bcaf094dU, 0xbd3c1ceabd9d90e1U, 0xbcb13a7ebd42f2e3U,
  0xbd7dbfdbbc8805cbU, 0x3cd27dcabd368e65U, 0xbd811d903cc39f4bU, 0x3c432c143d91f9a7U,
  0xbad0e01cbd163390U, 0x3db92525bc8604e6U, 0x3c916ad43ca80ed4U, 0xbc52faa1bc84be16U,
  0x3d55661b3d973c38U, 0xbdc76bec3c7bf318U, 0xbca11eb83c16b363U, 0xbd0e4830bc9778f5U,
  0x3d2aa4c93d5a25e6U, 0xbc6df3d33d427c64U, 0xbc81d509bd8f3485U, 0xbc437fb13d868561U,
  0x3dba470ebc08757dU, 0xbd9d0cc23c913d69U, 0xbd7064793d809f47U, 0xbbd731993d1cf801U,
  0xbc934f5b3c98c869U, 0x3c2940613d75c7c7U, 0x3c8829323d86a68bU, 0xbd4a1391bd672b54U,
  0x3cae3ac5bd90dd89U, 0x3c30c302bd4cc186U, 0x3d1997fd3c6d7720U, 0x3c2f6d4dbe1d2fecU,
  0xbbc49c91bd8f62e5U, 0xbdeab518bb77d68cU, 0xbd0d2fa4387fdf36U, 0x3d8aaf603d037aa5U,
  0xbba02742bab44973U, 0xbc4ee842bd53bf94U, 0x3d7f816bbbd18402U, 0xbc4fd67ebdbed82dU,
  0x3ca731233ca6fab6U, 0xbcb808b7bdce926eU, 0x3da9a57c3d56e833U, 0xbd3f80c4bc05116fU,
  0xbd8b16a13dd2b3d8U, 0xbd727078bd0a9018U, 0x3d3da499bd3c4d57U, 0xbc69ac7bbbb16376U,
  0x3c2a135b3da11915U, 0xbd05be443b854252U, 0x3cc8ce403d42ecdeU, 0xbd5a785fbdda59f7U,
  0xbd3f7ee8bd612ae6U, 0xbd43f5acbcfaefd8U, 0x3d35a3bc3db85eb5U, 0xbd9b2133bca2d9b1U,
  0xbc5d9dfe3d0142e2U, 0x3c78cb8fbd3fcd99U, 0x3da635e1bcd7aea9U, 0x3bdbeded3bbfbc5cU,
  0x3d96916d3ca37e8fU, 0x3dc236123d765d49U, 0xbd704a95bd4245d3U, 0xbcbc0bb13ccbf41aU,
  0x3d95c7df3bd0b5bdU, 0x3d976023bcdba39fU, 0x3c9100bf3db7fe81U, 0xba281835bd543405U,
  0xbd28bd24bd27e34eU, 0x3dd47ccb3c37bb34U, 0xbbc72e0bbda022efU, 0x3c8fa6153c24d1a6U,
  0xbc1f2ec33d208dfdU, 0xbd53d7d1bd0cbf3aU, 0xba23c4663ad49a16U, 0xbd0e326d3d3e9e3cU,
  0x3d49bf0bbd228325U, 0x3da4d872bd298c33U, 0x3cd10f863d94a9b1U, 0xbcda8cc3bdab560fU,
  0xbb018cf63b0d230cU, 0xbd39e7eabcd9334fU, 0x3df9982e3cdee1beU, 0x3d08aecbbd0b4911U,
  0x3c049ce13d8bc041U, 0xbd9369903d973e5aU, 0x3cf09750bd3769afU, 0x3d5e42fe3da0df21U,
  0x3d821d673da57233U, 0xbd0d53a33d70181cU, 0xb95a31873cb17d68U, 0x3c8ad722bd2c0f54U,
  0x3d6f0a0cbd0b2aa0U, 0x39cd50d8bd3124f4U, 0x3cc614ef3dad5a64U, 0x3d43d04fbdb36cccU,
  0x3ba7b5da3e271e19U, 0x3d4f1517bc9bcffeU, 0x3c3b4042bcb7f533U, 0x3d165136bd001741U,
  0x3d8753debc9cf23aU, 0x3dc9c2eb3d1dc0cdU, 0xbc60a48d3d01489dU, 0xbb56b15dbd7e050aU,
  0x3cb8a62cbca7d051U, 0x3dc811da3ce0a965U, 0x3d30c469bd7cb96aU, 0xbd414d6fbb9b7dd4U,
  0x3d62cc4ebcabc023U, 0x3dd5de023cb1a60fU, 0x3def7102bd20143fU, 0x3d8174f0baface79U,
  0xbd973d713dac071bU, 0xbc6a97d53d45c596U, 0xbda29fce3bd6af85U, 0xbbdeaa4c3d7a0cb5U,
  0xbcb169813d8ff755U, 0x3caf14bebc4be349U, 0xbd45e9f5bdfd7736U, 0xbcf154f83d8c8d0cU,
  0x3c746caabd133a5bU, 0x3d7c364e3dc45ee7U, 0x3c6dc261bd509372U, 0xbd48f2b63d7a8249U,
  0xbd25c63abd9b05c0U, 0x3d9273e8bdabd17aU, 0x3ddae2d93d0207e6U, 0xbc91a5f8bda8b801U,
  0xbd850356bd894e90U, 0xbe0f2efabcf15634U, 0x3dd47d57bd8f15d9U, 0x3be9bd3a3d436eafU,
  0x3dba87c93dd4f638U, 0xbcbc9bccbd11af86U, 0x3def91fcbdf9326dU, 0x3d7c215fbc845af3U,
  0x3d92df1c3dc8004eU, 0xbdcfa34f3d3c937aU, 0xbb85f608bd23fd2dU, 0x3cb3bdc6bd4b43bdU,
  0x3c3cd0e33ce33572U, 0xbd7e48e4bd3fe278U, 0x3cd010933df15ff6U, 0x3cfdc500bc131f0cU,
  0xbc5c8afa3dce0fdfU, 0x3d98f8a73d9072afU, 0x3bf7ef1b3d0dacb4U, 0xbc65f870bd982113U,
  0xbb00f3f73d5b6b5fU, 0x3df0800f3c049fc1U, 0x3bbbae1fbd44185cU, 0xbd7283183d061fa6U,
  0x3d6ca8563dc51bdaU, 0x3dfa89ba3d250b8fU, 0xbbab2ec4bd7aca2cU, 0x3dbcf5dcbdbf588cU,
  0x3da03a17bd8291baU, 0x3dccb8423da668afU, 0xbc8edd53bc6e350cU, 0xbd1964b1bcc18be9U,
  0x3cd5fdbebac0225dU, 0x3c8a749f3cf504eeU, 0xbde38d1bbcf8ff8aU, 0xbc4aaca73bc859bcU,
  0x3c71fc373c8d25b1U, 0x3ba6bcb3bbf7ec81U, 0xbc2950693cccf872U, 0xbd965ffc3c25bb97U,
  0x3c2ac3a13d223c65U, 0x3d5fa624bd12a1b8U, 0x3d6ab3b63d20f731U, 0xbbed183abdb9339fU,
  0xbd85d3793cb7d63dU, 0xbd6941b2bd1ace53U, 0xbd2cc86f3dd5ecb3U, 0xbdacd9d9bbf8e3e6U,
  0xbda60af33d58bbc4U, 0xbda425f33d172425U, 0xbc30c7cabc7c0b54U, 0xbd0b35cc3d9ad91bU,
  0xbda372cf3bc7c244U, 0x3dbe4efcbdd1b30cU, 0xbc8c69a4bde7baa8U, 0x3d47b2cf3da4c1ebU,
  0x3da85848bd8eedfbU, 0x3c31d2cbbdb5c6b6U, 0x3d683060bcb4cd1fU, 0xbd5d197c3cf2be2eU,
  0x3da597a03dac4222U, 0xbdab750dbde780e5U, 0x3b883c56bd035d0dU, 0xbc0217a33d06b345U,
  0xbd91dc5dbc9f4ae9U, 0x3da0ecce3cd037beU, 0xbc0dd661bd43ff3fU, 0x3d8b680cbd68eb39U,
  0xbd91bb6d3c648c39U, 0xbd7eb4693d36cb43U, 0x3d7ef9c5bdb4622aU, 0xbc718e84bd54eed6U,
  0x3d8bd4c7bd72a5d1U, 0x3db90b453e04335cU, 0xbd1290a3bd8e44eeU, 0xbd50fa2bbb54aed9U,
  0x3ccef4a93dad813fU, 0x3da36c8c3dd24d1eU, 0xbd35d032be089846U, 0x3c7cd081bc63614bU,
  0xbd6215c6bc4e2235U, 0xbe153c01bd9d8ce4U, 0xbd3edc1cbd7df378U, 0xbc113237bb86b353U,
  0xbdc356933d39baa6U, 0x3d852467bd543cc7U, 0xbdbbee6f3d2bdf68U, 0x3d35a0ba3c7a087eU,
  0xbcc0fa6e3cfc5a63U, 0xbd5779b93ccd496eU, 0x3c292ca23c6662c0U, 0x3c2611fcbd92a106U,
  0x3d4cd4bf3c560711U, 0xbdd91de6bda22a06U, 0xbdbe4761bc4fd43eU, 0x3cbdb865bd158a29U,
  0x3d8871fa3bfcf978U, 0x3bfca1f23dc80f29U, 0xbd14a4593dc51a61U, 0x3c949bcb3d60bf5cU,
  0x3cb61cae3d71fff0U, 0xbd4ab2f9bd5c0b91U, 0xbd7b5b8d3cedaa4cU, 0x3ccde5163d12ffb2U,
  0xbd89ac873d250965U, 0xbb515fb63db742b9U, 0xbc91f517bd33d3c9U, 0x3dd8aad53d06b145U,
  0x3aec3b98bd83e40dU, 0x3d4e82963e02dab3U, 0x3dbcbe5a3d84e885U, 0xbc71ea22399f4e3dU,
  0x3d19aabd3db04abeU, 0x3e1288163de701d4U, 0x3dd0763abc85c775U, 0xbd88ecffbd44d658U,
  0x3da93520baed5405U, 0xbdd63517bbdbe1d1U, 0xbde20e4c3e081efaU, 0xbc322c2fbd7c431bU,
  0x3db6bf98bb75ce0dU, 0x3d4405f33e15d7a2U, 0x3d0b83f9bd6f0bcdU, 0x3d7fac5a3c8685d4U,
  0xbbf1afba3dba1810U, 0x3d981509bd24eff6U, 0xbcbbb1dabc79ac13U, 0x3c0c3ec1bd5cee68U,
  0x3cdbf747bc9045ddU, 0xbdaf917cbd4811ecU, 0xbdc04fbdbd0c6140U, 0x3c03ef993ca49884U,
  0xbd15b69d3d261f09U, 0x3d8b78d23c70487cU, 0x3dbe9adfbd87d326U, 0x3cc4e82e3db4d2a7U,
  0xbdabe6533d1e6d3aU, 0xbdd5976e3d916eadU, 0x3d4029dd3ce21ef4U, 0x3b1ae131bc713f8dU,
  0x3d84b5c9bdae8cf7U, 0xbd9b6765bd8c135aU, 0xbdd815153ddb187aU, 0x3d4ae5983caafa60U,
  0xbcaa5248bda9d679U, 0xbd28004f3d48ffffU, 0xbba876df3c230831U, 0xbb5b32123c3d9e5aU,
  0xbd1c7b90bc5478bcU, 0x3cd5ef7cbd510307U, 0x3dd3f2e5bc8a6d5cU, 0xbccd9def3df4715aU,
  0xbd47680f3dcdb288U, 0xbdcae15b3d66c86dU, 0xbdc7d204bd4b528fU, 0x3da840823c0f7ae6U,
  0x3dbafe9cbdaa6f38U, 0xbd3edbfe3dac1b02U, 0xbccb22fa3d96b169U, 0xbdc3d7573da63d02U,
  0xbdbf00ab3d535ad9U, 0x3ce53c2a3dd99749U, 0x3d6cabbabb82b1e3U, 0x3c7751443dd81675U,
  0x3c9ac1833dc756dbU, 0xbcf7a9223d9fc8a1U, 0x3d8f5cfe3cda491eU, 0xbd00bdf1bd79560cU,
  0x3bf2bfc6bccaa2c3U, 0xbcb8c3583d98a0eeU, 0xbd5c768bbd296ec0U, 0xb9e95d7fbd4ef4c6U,
  0xbca3c2a4bae752a3U, 0xbda9cf9dbe2a7d9eU, 0xbcfed6293d59430eU, 0x3d5bf1acbd41d8ddU,
  0x3dad4f463d66008aU, 0x3d3d2cf63a4e0de4U, 0x3bdbdfa23d53fad3U, 0x3ba3663a3d788cbcU,
  0x3cb1408e3a9dd9ceU, 0xbd6674463b8500ccU, 0x3c1efc823c92cccaU, 0x3ca316073da8b0bbU,
  0x3d4a1e293a9f2b76U, 0x3dc149783ddebda4U, 0x3d31d880bb95ce74U, 0x3d104c79bc6ad222U,
  0x3d1484edbc2f48d5U, 0x3dbf876f3b411242U, 0x3d6f63d8baf7f2a6U, 0x3d9ac2debc6ddf9aU,
  0x3da405bc3df0a8c9U, 0x3da09caabd1f1a70U, 0x3c52784abd1228b4U, 0x3b2046833cd0a8b0U,
  0x3dc84c2d3c581a57U, 0x3c2dd1f2bc0af836U, 0xbd4fa82f3e752f34U, 0xbd471cfd3c9bddfeU,
  0xbdc2e88fbc509816U, 0xbd99daa23d3e9fe1U, 0xbd5e12a9bdb02219U, 0xbd8032763deb236eU,
  0xbcafb0fc3c0dd045U, 0xbd1cef89bd086d68U, 0xbb8d29a23dc3d182U, 0xbd5e3985bdc496ddU,
  0xbd1e69e9bd8ae4baU, 0xbc8a11a83d58dd32U, 0x3ceaf04a3d77f312U, 0x3d7ed9883c6af65dU,
  0xbdcdfdc23d7aac0cU, 0x3dc4c2d23bf83103U, 0x3d01748a3dbe25c9U, 0x3d1657053cc819e5U,
  0xbd17a2f2bc05f275U, 0x3c7672d93cf648afU, 0x3c43d9773cc7278eU, 0xbcf1ff1b3d5a2ae6U,
  0x3c807b1d3e0b6959U, 0xbc2c8c58bcb97930U, 0x3d6f8edfbccf40e6U, 0xbcc12ece3e08bfa8U,
  0x3d4fbc0abd5154a6U, 0xbd863f67bdba3ec3U, 0x3def81703c68c007U, 0xbbb094623d1b6c63U,
  0x3d983d49bc353764U, 0x3cd0a811bbfc8499U, 0xbd81db773dab2ee3U, 0x3bbe63b13d4a9c50U,
  0x3d0cc39f3cae5290U, 0x3d89f68cbca77247U, 0xbcb6914abda561c3U, 0x3d56f67c3da66f39U,
  0x3d10c452bc116ebcU, 0xbd91e441bd9bc78aU, 0xbd35e66b3d26be13U, 0xbcd171db3d0a2036U,
  0x3e05972d3cdd5de6U, 0x3dcf93413ca975c5U, 0xbdc4b76bbc5c2215U, 0x3d3c38f8bd56198dU,
  0x3de7309a3cb407d8U, 0x3de36f6cbc303ac6U, 0x3d0f24e13e1fe57aU, 0xbcf0f9cb3e01ce91U,
  0xbd9c0d903d6199acU, 0x3dffa3583dcf9dd0U, 0x3dd44606bcb62a13U, 0xbcb1f35abd96fd92U,
  0xbc1de9b83d473b3eU, 0x3e236f2b3ca57df9U, 0x3e0017f2bda81992U, 0x3e01533c3d279fa7U,
  0xbc2f9109bd8ced2eU, 0xbd8ee6303c3f94fcU, 0xbd7116363b9bcb3dU, 0x3d0967c53e32d17dU,
  0x3dcc36523e29fa28U, 0x3bbd149f3d94370eU, 0x3d8b06993e13c5baU, 0xbd0e3ca73d044b3dU,
  0xbe30ec8d3dd48176U, 0xbd0888b9bdd4d1d8U, 0x3d025cba3d0a467cU, 0x3d655c50bc8cdc5fU,
  0x3dbe7366bd66c738U, 0x3d103e22bdbe362cU, 0x3d0e9f393dcfd75aU, 0x3cd149dbbd8de5f4U,
  0xbcd830d4bb8783a6U, 0xbd7291713ca60acbU, 0xbd44def73d7fa573U, 0xbbdf04e2bc3ff7a1U,
  0x3d3cfb383d21109eU, 0xbc82a144bb96b453U, 0xbdb5b0e63d5b3922U, 0xbd172d783d67fa75U,
  0xbd88c6233d3958baU, 0xbc3c7349be04415bU, 0xbd602c97bbbb7432U, 0x3c1c186b3dd28852U,
  0x3d8409833d622983U, 0x3d17201c3d3f9818U, 0x3d765342bd65a39bU, 0xbdb38b09bb7a8328U,
  0x3d5c62843d920b40U, 0x39aa895b3cadbf71U, 0x3d83c5a23d45f5feU, 0x3d95fe0c3c82d1f5U,
  0x3db50538bca8303dU, 0x3c7661953bc4d7a3U, 0xbbcdb9483e2c3b24U, 0x3d2a56da3e1f6c47U,
  0x3d88bf063d32047cU, 0x3d99a7f93da075e8U, 0xbc2f287cbc054747U, 0xbb20f32a3d68678dU,
  0x3ceff6c5bd1ba7cbU, 0x3d903156bd78d268U, 0x3d8b9e6f3d8270ffU, 0x3df8bce1bccf4742U,
  0x3db1aa99bcfcb915U, 0xbcb3d5893da2082dU, 0xbe01aca33dc18984U, 0x3d6fc97b3e15b17eU,
  0xbc73e6553e12a051U, 0x3e04b9c2bdc42b3eU, 0x3d8cb5c13e138ed5U, 0xbc967ef93bd258b4U,
  0x3d1802f33ce61478U, 0xbcf3723fbd05cdeaU, 0x3dd645133dd8310cU, 0x3d76f347bca567a3U,
  0x3df4c5c3be1fe11bU, 0x3e00ffb63d022388U, 0x3d07c1cdbc03dc16U, 0x3d8cc5f4bd2ce425U,
  0x3cb7150e3d7aa00fU, 0x3dae848fbd19849dU, 0xbc44d11d3d6b44e3U, 0xbcd131eb3ca4c463U,
  0xba8546e2bca025e8U, 0x3da0e9473d813ed2U, 0xbb5862f83c01b178U, 0xbc4b06dc3b81fe17U,
  0xbbe82ba4bcbd8483U, 0xbc9febd8bd24656dU, 0x3cb9fa473c968e7eU, 0xbbe2f0fbbba7073aU,
  0x3d8a038e3dbfec17U, 0x3b83b713bd629767U, 0x3d4c2d0f3d03e6e0U, 0x3d0eac053ab7817aU,
  0x3dc6635f3d7c3d8fU, 0x3b99769ebd1b7567U, 0x3b9246663d81ed93U, 0x3b08a75e3d7c534dU,
  0x3a8d2cc23d66c1d1U, 0xbc7371433ca504faU, 0x3a87a6c23cbe9931U, 0x3d138da23d927bf5U,
  0xbd759fb3bd37ac40U, 0xbd2d1fd8bca00e2eU, 0x3cf935efba1ff601U, 0xbd9068e83c2245d3U,
  0xbd00378b3cdc6a53U, 0x3a15a882bdd7b92aU, 0x3c10f0f63aceec6cU, 0xbc33b89a3d08eb71U,
  0x3e20a44ebccf3d1cU, 0xbd38aea63e08c96eU, 0xbda7add3bd0c45adU, 0xbcad17aa3c93d548U,
  0xbd2f8b793c5bb4ecU, 0x3e0590173c49c72eU, 0x3da675d93d6d6bb0U, 0x3d9a096dbdd2ebc4U,
  0x3c9ce3b63e06c73dU, 0xbc4eae6dbd7861e9U, 0xbcbd318c3d6299d3U, 0x3c82fc3f3d33fdffU,
  0x3e0ea016bc74e40cU, 0xbd2603dbbd40fb7fU, 0xbc91d4843c287191U, 0x3db019203da985aeU,
  0xbdd7efb73e148714U, 0x3d88c43ebd7457d4U, 0xbc9adb103d8d5ebeU, 0x3c7c7b36bd876129U,
  0x3dc7ee6f3d7698bfU, 0xbd129a0f3d246ff1U, 0xbd8d701bbd42a30bU, 0xbd1091333d2f3ce9U,
  0x3d8f539bbde04c44U, 0xbd1078673e2bcb5cU, 0x3c16045ebd408ceaU, 0x3d3237bb3d24dfe9U,
  0xbcad0208bd7939ceU, 0x3dc539153d1ebc74U, 0x3cf152803c4e2738U, 0xbd057a633c641ff8U,
  0x3d1d54553dc6271eU, 0x3d0918573cce9106U, 0x3d602cb2ba0d3dddU, 0x3d618215bd4eb045U,
  0xbcc76ff0bd6efadbU, 0x3b3caff43d87cad8U, 0xbdd304ae3d204411U, 0x3d2e41383b2b9488U,
  0x3dc5518ebde12396U, 0x3dac271fbda98b99U, 0xbac33df73ba29de7U, 0x3d2f4822bd33b014U,
  0x3d7b78b33d8512edU, 0xbd665f0dbd9a5a57U, 0x3ae857b6bd645ee4U, 0x3be53b4d3b69092fU,
  0xbd87ecbb3d0bdea6U, 0x3cb6af40bdd3544bU, 0xbdd05a663d15fa16U, 0x3bdedb2a3b0def16U,
  0xbc61d8763d2ea7c3U, 0x3ccffdc2bd120dbeU, 0x3cc4bab8bd59cc84U, 0x3dd9719e3d5a2e9eU,
  0x3b799972bdd43e57U, 0x3d808a73bc9e194bU, 0x3c9f3978bc790393U, 0x3d0b867cbd546cfaU,
  0x3d4836ebbde3717eU, 0xbdb212433b81f55cU, 0x3c90bafdbb782a7dU, 0xbc2906c43d0918a8U,
  0xbcd69fdd3ce86f24U, 0x3da5804cbd891a7eU, 0x3da90f73bda009edU, 0xbcd524a5bd75d8fdU,
  0x3d8ca06d3cfd81b8U, 0xbcb419273c783009U, 0x3d610b793d0c0b84U, 0xbd5c249dbd04297fU,
  0x3d24006dbc2d1283U, 0x3d8e0d7d3e1e9686U, 0xbb3f43223d29b70bU, 0x3d1607703c8b33b4U,
  0x3ca3b0e0bc4cbb61U, 0xbd0787e23e12f288U, 0x3d2f284abc40ba54U, 0x3c2038dcbd9819bbU,
  0xb9aabfef3d4310e5U, 0xbd03c8c3bcfa1c10U, 0x3e0444e73df42b66U, 0x3c9fa0aebdad522cU,
  0x3d553098bcf2d6e7U, 0xbaeb2052bdb1f355U, 0xbdab24de3cfd5e39U, 0x3d1c5cff3d63e7c2U,
  0x3da9629fbde785bdU, 0x3ce40063bd947b06U, 0xbc96cd7cbd9642b8U, 0x3dd913b03db0d6abU,
  0xbd8ab1f73e05805dU, 0x3db654e2bd208ebbU, 0xbce157fabc05c155U, 0x3c510ed0bdb16d90U,
  0xbb0570adbd72972eU, 0xbcb7aa31bdba94a9U, 0xbcf23d963db5232cU, 0xbca47590bd797ce7U,
  0x3d98457abd752e7bU, 0xbd9c62febd6b7b94U, 0xbd949ffb3c11004dU, 0xbd744f3b3d5f200eU,
  0xbd582c00bd9c6fcbU, 0x3d611b45bd4c68aeU, 0x3b863abd3d078580U, 0xbd9bbb87bcef87d9U,
  0x3cdaa008bd93d043U, 0xbd03fa11bcbcd7a6U, 0xbda94a66bdaebd9bU, 0xbd3895353d2b24ceU,
  0x3ddd893ebd698381U, 0x3e0113e0bd0d8433U, 0x3dac4b523cf6afc7U, 0xbd7cbd683d16ab1eU,
  0x3d9b50c83d763aaeU, 0x3db1acef39045b0cU, 0x3ca6740c3d101296U, 0xbc18228a3c8bd560U,
  0xbdd879f33db416f5U, 0xbd5293afbdcd2343U, 0x3d5008233d40cd78U, 0x3d8f80efbdb3ffa5U,
  0x3d6328a8bb3b9ffbU, 0xbce5877cbc75e178U, 0xbd85df723d29953dU, 0xbd5746c9bd49360cU,
  0x3c5b9e303d838aaeU, 0xbcb66a35bcc2b526U, 0x3c23e772bd0ebed7U, 0x3d8a4debbdab0293U,
  0xbd7b60b4bc58dfc6U, 0x3d5fa354bd6e484fU, 0x3ced821abcde1536U, 0x3d8424babd5ac54dU,
  0xbd3bb016be006f8eU, 0x3c187fa8bdcd8f92U, 0xbd80c09f3c98085cU, 0xbc26a207bc33ce8eU,
  0xbda165683d27cf17U, 0x3ca989953d4c6a2dU, 0xbd7f38933cc7e0f3U, 0xbdb730093bdeca83U,
  0x3ced250cbcef65e6U, 0xbd54008fbd3cd3a1U, 0xbc334b893d29806aU, 0x3d87d02ebd06329cU,
  0x3d7e44ffbda9576bU, 0xbd98981d3d72ddf4U, 0x3d7838873bc1454aU, 0xbce8af9dbd9d65a9U,
  0xbdad3208be0d309cU, 0x3d0283c5bdd7e3c0U, 0x3ceee4ec3c327928U, 0x3d75f36f3c6b8a3eU,
  0xbd39e01a3d27dd07U, 0x3c0fc68cbd98f354U, 0xbbef4bb2bd880f4eU, 0x3d8be05d3cdcc15aU,
  0x3d10963dbd696376U, 0xbd891e113ca2992eU, 0xbb98a8463d77cc72U, 0xbc37820cbdb62f3aU,
  0x3aa861b93dc0da67U, 0xbab8bc45be0dc699U, 0xbc969423be04acb3U, 0x3b3ec0603d293b93U,
  0x3bded3ca3d34b6fcU, 0xbc7c2f8fbda5f748U, 0xbd2d00b9bd2cd12fU, 0xbe264dc3bc5345ebU,
  0x3c41457f3c4492b5U, 0xbdd54af1bd1feaa7U, 0x3bea558bbce37aacU, 0x3d948a2e3bef767fU,
  0xbd0fced43d81b345U, 0x3d79cd0ebc0f735dU, 0xbd52f804bd74ecaaU, 0xbd81e512bdaf7fb7U,
  0xbd2965423a0a8827U, 0x3d7488773cdfea02U, 0x3cf157ba3da12f5aU, 0x3dc501243dbcbfa7U,
  0x3c27ff40bd98b86dU, 0x3c7ec8843d359a7aU, 0xbd11d4283d2d0100U, 0x3c888a0f3c841b41U,
  0xbd8184e43a8caa04U, 0x3df2ca383e14d3daU, 0x3dee138c3db020adU, 0xbb3ca2e13c3f968eU,
  0xbddf08613d042cceU, 0x3d89445ebc52e64cU, 0xbc864cb6bc9a5cc4U, 0xbd8d7369bd9af04cU,
  0xbc114cbc3c62f7c4U, 0xbd0f825b3cbe5986U, 0x3d0eef8dbd0e3212U, 0xbcfd76ff3c9ddd37U,
  0x3dcc6cb2bdde3522U, 0x3dab00383d20a8a9U, 0xbdab6d16bd80296aU, 0xbd49622a3c63d091U,
  0xbd81e040bde990ebU, 0xbcb76e033c93639fU, 0x3d64c7d3bcdd5eacU, 0xbd66523fbd3d3712U,
  0xbc4c746a3cc6e46fU, 0xbd27b751bd55be23U, 0xbca274b73d212d69U, 0x3d52ac12bd650ce7U,
  0xb9ee64933df8a36dU, 0x3d8e8a2dbde60851U, 0x3d81e145bdf60b07U, 0x3b78d3f93ce840ebU,
  0xbd63c237bd024fc6U, 0xbd1ca255bc3de02eU, 0xbcde203abd23fd56U, 0xbc952eb0bd3c6373U,
  0x3ba36a623d30bb4dU, 0xbc9809c4bd0d1fdeU, 0x3cdd5bf63d2fd13cU, 0xbd2bf205bdbeda9eU,
  0x3d8d0deb3c134834U, 0x3cfe37923c883e86U, 0x3cd5bf753d20c461U, 0x3b84cbc5bddf06b1U,
  0x3da0adc9bd95bb35U, 0xbd3edceabd63d2f5U, 0xbdc1c073be059dfeU, 0x3d3ea1ac3bbb2059U,
  0x3cc36191bcdaca30U, 0x3d710745bd05f379U, 0x3c5e58bc3d0e77d2U, 0x3c6f19f0bd0f5f9eU,
  0xbc0943cabd5b68a8U, 0xbd20159f3d15056fU, 0x3cdd2f46bc74cc93U, 0x3d320ef4bb90c828U,
  0xbd0e3859bc5383dbU, 0xbda4722fbc67b2ecU, 0xbdec3a51bdbe71a7U, 0x3d176711bd986ce6U,
  0x3c22399fbe09b9d6U, 0xbdd2e51b3d550374U, 0x3c1b6319bcbabf81U, 0xbd35b6afbd5f03abU,
  0x3d15a90ebdffac0fU, 0xbdc75c8cbb9eb316U, 0xbd03aaa63d7a982dU, 0xbdad5e91bccbc9abU,
  0x3c77400abdfb942eU, 0xbda841ac3c9ae22cU, 0x3c064ab0bd827721U, 0x3d0dbfadbdc94d74U,
  0xbd6f587e3d05ae96U, 0x3d01ebb6bb91c872U, 0x3b1c223e3d3d481fU, 0xbbdac5eebd9438c6U,
  0xbcaf14713c03c21fU, 0x3d353e76be262066U, 0x3dfa6db1be574321U, 0x3d20a8a3bc58b1b1U,
  0xbd16ede8bb03f750U, 0xbd182d0fbb9ebbc5U, 0x3da66208bc5ed7cfU, 0xbdcb7e27bc01738eU,
  0xbbf72e5b3d1643b7U, 0xbc50a0aebd9972dfU, 0xbd906e473bdfd4ceU, 0xbcfa596fbe141991U,
  0x3dc487f83bd97594U, 0x3e12de50bca4a9d6U, 0x3ce44ea03bbf3d45U, 0x3d944042bdb57a95U,
  0x3df647d13c866797U, 0xbdaef84b3da60904U, 0x3c8121e0bdd2d194U, 0x3bdaf8303ab7d68eU,
  0xbc3070efbdf4948fU, 0x3d185e873bb24b77U, 0x3d538264bd145b69U, 0x3d1d0b7abcca7afdU,
  0xbde63f62bb851b46U, 0x3d8ea965ba909377U, 0x3dad63dc3d405630U, 0xbc7b0c923a998229U,
  0xbdad42d6bda28c61U, 0xbd7183e0bddaec4bU, 0xbac085613cf62519U, 0xbdaa3682be579f28U,
  0x3cbb6e06be19fa52U, 0x3cda9bb73d78b167U, 0xbca7b416bdd16e57U, 0xbd9e40a6bd6cadabU,
  0xbd3738e4bd9f97e9U, 0xbc01a66fbd76e7d2U, 0xbd3c08f4bde60fc9U, 0x3c93f7f8bd043c60U,
  0xbd64d192bd87ece2U, 0xbd8928a6bdaa13a5U, 0xbde5857dbcb6fe86U, 0xbdf55169bdc4d313U,
  0x3bd5ab61bcbd2d13U, 0xbd601207bbaf3f04U, 0x3cbdce2e3d6b1c31U, 0x3cb7a21e3d501e85U,
  0x3cd976283ddf42a8U, 0x3d8228c2bb532724U, 0x3d3087babd5432a8U, 0xbd1699c33debf2a6U,
  0xbda2bf77bcaa2e91U, 0xbc767409bb49f1e2U, 0x3d3b65db3cc1fad9U, 0x3d8dac50bd85ac21U,
  0x3a3f2656bcbf81f4U, 0x3dd3f3b7bca9c413U, 0x3dbd35513dd3c381U, 0x3daa05a6bd2de186U,
  0x3d8c3346bd5f19dbU, 0x3dd868603e0424b5U, 0xbdba34cebc96bf6dU, 0xbdc8b7333ca6efcdU,
  0x3dfd14e1bd83fbf7U, 0x3c0d80ed3dad360eU, 0xbdd16c91bdb288a5U, 0xbb7d202a3d79f975U,
  0xbd5507ecbd449826U, 0x3db876cfbbb49808U, 0xbd74a8b7bd9e618cU, 0x3cd3326f3dfa9d22U,
  0x3d1420ddbd479fe9U, 0x3d3855673c18112dU, 0x3db5b3153ddfd215U, 0x3c17934b3dc20799U,
  0x3d94a8ed3d064423U, 0x3c63bdcc3da18b03U, 0xbb1faea13d878845U, 0xbd841dd2bd642d98U,
  0x3d032b17ba9460bdU, 0x3d3cead2bdabbfabU, 0x3a3500483d9314c4U, 0x3d78cdbd3ccf5a1fU,
  0x3ddc4325bcb9f1feU, 0xbd44115abd271fd4U, 0xbd7e6e413d0d1cfeU, 0x3e02af2d3dd5ea38U,
  0x3d8bf6423e1691ccU, 0x3d34a9fb3cffe1eeU, 0xbcfa63d8bc7fe276U, 0x3d7cf4983d9fa862U,
  0x3d34d49ebc9ed854U, 0xbcbb50953d6b8366U, 0x3cf62d19bd5baf79U, 0x3d87fa563c8e737bU,
  0xbd121e233daef7dbU, 0x3dcd1f04bdbaf381U, 0x3d8710e7bc8e1cdbU, 0x3daa84a6ba886585U,
  0x3d5712eabd91f7c3U, 0x3d72fb1f3de7c62eU, 0x3d7eac663da3de4cU, 0x3b1cc73c3d4f5cceU,
  0x3dbe43d53db1a6ebU, 0xbcd72a5b3daa1a0cU, 0xbd27f21b3d0908f6U, 0x3df89702bde7bd22U,
  0x3cbcbd0fbd6afd00U, 0x3d262e053d84514fU, 0xbdb427943c9bc67aU, 0xbb9125d93da99e2dU,
  0x3ca3d589bd071a1eU, 0xbd11a23d3d185d17U, 0xbdaf10203d14d3efU, 0xbd95b5d63a8689c3U,
  0xbe0e45393d80bcceU, 0x3ca00305bdc345adU, 0x3c8e9c653d78e2e9U, 0xbba3c07abda1e870U,
  0xbd48a86d399f9f04U, 0x3e02f5eb3d83e62aU, 0xbd0de047bc5c08cfU, 0xbd872a823cfeffd2U,
  0x3c09b04d3dad256eU, 0x3d981d28bda256b4U, 0xbd48de29bd0fb9e8U, 0x3c10dbe83e01b5b3U,
  0xbd31e81ebd2f95e6U, 0xbd2df5ed3cc7badfU, 0x3ded2ccf3de75211U, 0x3ca15dab3da0dd45U,
  0x3dae23793d99934dU, 0xbdbb178a3dcfea40U, 0xbccdd779bd82c9b9U, 0x3cb7f8803c926f47U,
  0xbcc5880d3d0f28e6U, 0xbc8417793da6e0fdU, 0xba71d52bbb6317a2U, 0x3c5ad5583de53a25U,
  0xbcd847c33dbbac39U, 0xbc54e08b3d317febU, 0x3b103870bbcf56d8U, 0x3d01721cbd762640U,
  0xbd4389d13ad9b3bbU, 0x3d9b8f86bd7390d5U, 0x3ded4d54bdbd3f0fU, 0xbc932cb33bfc8ef3U,
  0xbddec31f3ca9cd57U, 0x3d83d6ae3d876737U, 0x3cce016c3d964288U, 0x3d13b8dfbcfc3fbbU,
  0x3e2b43123d8cd938U, 0x3d13e7a7bcc2aa9aU, 0xbcf7c2bf3cd73318U, 0x3dac7147bd62c8d5U,
  0x3dab0b8abcdc8f23U, 0x3dc101933cef8795U, 0xbdd3dcdd3dba6d7cU, 0x3d545c6f3d3dc853U,
  0xbd14ba793ca0a0e4U, 0xbdaf2170bd0054a4U, 0xbcfb25793d6ff928U, 0xbcb2d28c39bbb459U,
  0x3daf81183cd1e166U, 0xbda1a6833d1ad23fU, 0xbdad1c36bd681e8fU, 0x3ca489a8bd06e129U,
  0xbd05ee9cbe0edd22U, 0x3dd615e93de84476U, 0x3dbbb1763b31a97dU, 0x3d95e04abd30f73fU,
  0xbbde287e3ddc4434U, 0x3da6df34bd74905aU, 0x3d0d5ba1bc270e65U, 0x3da3c10f3e0c3b54U,
  0x3cb6ef943cf08dc2U, 0xbc06bede3dba383bU, 0x3d9b511b3d44a8afU, 0x3da26d6cbd727c36U,
  0x3af99d063cf8d606U, 0x3dba38813e11ccf9U, 0x3cf98d503dc95b94U, 0xbd71485cbcc725acU,
  0x3dbacb8fbc3f0b5eU, 0xbd7f4129bd462cf8U, 0xbd9c0bd33e0f3113U, 0x3d978b723dc33e81U,
  0x3c4e7245bd469e1aU, 0xbbe57714bda80242U, 0xbde348d63d39b9f6U, 0x3d856dd5bc98eac1U,
  0xbd0b00dabb8323a7U, 0xbda4a3b3bcfffc42U, 0x3d12bd9e3c90d8b5U, 0xbd29a7443cd44a8cU,
  0xbda7b7c3bdb34e0cU, 0xbd34f84dbc8ab01aU, 0xbd24da5a3c32ea11U, 0xbc4e0765bdcf06e4U,
  0xbd4dd5dc3d3f8a12U, 0xbcae308ebc027e62U, 0xbce98a4abda82e1fU, 0x3d516ad9bc8652aeU,
  0x3d2082f5bdff4277U, 0xbda1ac78bc58788aU, 0x3ba3f7513cb3e2f9U, 0xbd04a80dbc8e64e7U,
  0xbdad6bea3d71285aU, 0x3b524b283d66f887U, 0xbd58b7d33d9bf44cU, 0xbd750b1fbd6e5044U,
  0xbd849ce53d9bc03aU, 0xbd0eaa66bd6a3a32U, 0xbda783ce3d787342U, 0x3de3525e3bd96c1aU,
  0x3d0fbee8bcd1c552U, 0x3cc8d37a3dc15284U, 0x3d06d66dbcdededaU, 0xbbf937a1bd3ec2a4U,
  0x3dc6b788bd06e472U, 0x3db588053d869353U, 0xbda288303e01ce0bU, 0x3caea09abcb58226U,
  0xbd6461e13d4c1857U, 0xb99279f93df54eddU, 0x3ce85ec43d4d8abbU, 0xbbf18cadbc33be75U,
  0x3d3c71a1bd67bbc7U, 0xbd2586bb3da163b0U, 0x3da3df1b3c27baa2U, 0x3c71dd50bb8b8aa5U,
  0xbd7bb61fbaf34770U, 0x3e01e87d3d47489dU, 0x3d7d8ec73d2a3ea6U, 0xbd3992323dc2e5a7U,
  0xbdb0c601bd8a9185U, 0x3d56e4b5bc520764U, 0xbdadbe2a3c9a76bbU, 0x3cf355ddbd905661U,
  0xbd3cf5463cb1c861U, 0xbd981cf4bc5c0e8cU, 0xbd9b40383d10dc01U, 0x3d4f23c7bcba2b5aU,
  0xbdfa3501bd1f526fU, 0x3d2503a63d44f856U, 0x3d4e5a3f3dad9cb2U, 0xbd590062bd71dbceU,
  0x3beb5417bdbe0141U, 0xbcb037013d04a7a5U, 0x3da092fb3d18655aU, 0x3d186b623d6de7a0U,
  0x3c16eb7d3c1d6826U, 0xbda782823d0f1cf6U, 0x3ca7eb7e3d7f1605U, 0xbc39dab1bd6571c9U,
  0xbdb879fd3d97998bU, 0xbb1d2b7f3ca499d3U, 0x3c08c9babadba9a2U, 0xbca5ace3bd990295U,
  0xbd372f053d2aa812U, 0xbdaedc0f3cf25d5eU, 0xbc80b4c73cae53dbU, 0xbcaf7e79bd549b36U,
  0x3d739aaa3d0da508U, 0xbd4446623d95aeeeU, 0xbda0b0793aa733b1U, 0xbb19da633da0a87cU,
  0x3db1f65fbd6a786eU, 0x3e1e98843e0fd4f2U, 0xbdfe05dd3db18533U, 0xbd15609fbd86a201U,
  0x3cf0d807bd7afc76U, 0xbd1a75063df5cd05U, 0x3dbc2bb2bd022659U, 0xbcbcbd2cbca92ae7U,
  0xbd11406e3cccd5ceU, 0xbd738fe63d672e1aU, 0x3d4d81bbbdb566e4U, 0x3d1fd870be331556U,
  0x3d50f6f1be05556eU, 0xbd890d98bbba4eacU, 0xbcc94cff3c81dcd8U, 0xbdb33d10bd2a3a38U,
  0xbd7957583d32034eU, 0x3bc3fe363d94cdbeU, 0xbdcf972cbccf1c08U, 0x3dd82b77bd3b7186U,
  0xbd8c3e013d0655d1U, 0x3cea4211bc6201ddU, 0x3d9630423d67498bU, 0x3b299d783dc2f02cU,
  0xbcb2f7d0bd463dfaU, 0xbd234346bb95666eU, 0xbcb0e45cbd3eb9b7U, 0x3d489448be2a1217U,
  0x3da9649ebe151410U, 0xbdb0bb3a3d964237U, 0x3d1e170f3d2cbf04U, 0x3c8a0da0bdafb69eU,
  0x3db1822d3cbdee56U, 0xbd81d12fbcd7a949U, 0xbd1cd5fc3d30a727U, 0x3cc2694cbd43c739U,
  0xbcd4929c3da10b79U, 0xbb39cb7abc6a1d4eU, 0x3d2798dfbda2f520U, 0x3cd7782f3de543beU,
  0x3c987fb1bb25f771U, 0xbde60d83bd47e139U, 0xbd7c3689bda055d5U, 0xbd922b0c3c5ca05eU,
  0x3d3c44663db0671dU, 0xbdd9f918bdb8c7f5U, 0xbdc178fb3d9f2c61U, 0x3d162a3a3d0e2b9cU,
  0xbd15eae7bd410c08U, 0xbd6fb534bcc14f0cU, 0xbe2ec2ba3b979f28U, 0xbd14ff1e3d6ea86fU,
  0xbd80f3d2bd87d233U, 0xbcb66e5c3daf3bffU, 0xbdadf1ddbde6ac83U, 0xbceff6c9bd727803U,
  0xbd622ab53daf963aU, 0xbdc6e4d6bdd6c9e2U, 0x3d59a51dbd3fbbb5U, 0xbddc58a3bd77cab2U,
  0x3c833cf4bdb0bda7U, 0x3b005f0abd452623U, 0xbdb2b551bdbdbbfdU, 0xbc6dee53bd98a86aU,
  0xbc0daf69bdfb05a2U, 0xbd9fa3ff3d001120U, 0xbc7b089bbd9a9fb4U, 0xbdae64243d9d558bU,
  0x3cb6899c3df0cca6U, 0x3c906eb3bc260854U, 0x3c02667abc93aeadU, 0xbdcf18a5bd9af318U,
  0x3d09f16b3d9872a6U, 0xbc972d8cbb9ce721U, 0xbd3aafc9bdc2b2f8U, 0xbd4a15643d998824U,
  0x3d6486e7bd65ec27U, 0x3d2b7c38bd2445d3U, 0xbc500ee53cc92a1fU, 0xbdf20cbfbcd7ddf4U,
  0xbcffe757bd8d5041U, 0xbdb475833be2522cU, 0xbd81ecbabc39bed5U, 0xbc25572ebc19d474U,
  0xbc5efb753d98c290U, 0xbd0980b03d73f2a5U, 0xbcc9b1f6bcbab325U, 0xbd3e0b39bbf8176cU,
  0xbcf470023d984ed0U, 0x3aab398ebd98a9a9U, 0xbd1e86afbdb8600aU, 0x3c4c6d09bd921f49U,
  0x3d3abf79bdad4ea1U, 0x3b5023623d8922b0U, 0x3cbfed003d6f4a98U, 0xbd959c473d2bdaa6U,
  0x3d9a1cc3bd91c961U, 0xbd34ebf7ba30b703U, 0x3b2bc600bd1e1473U, 0x3c9bd28c3da14f82U,
  0xbb7dd1683d6cafa3U, 0x3d6b9ad2bd88ac7cU, 0xbcc5de823c83a112U, 0x3c48c4c9bd102339U,
  0x3cde0ccd3d4cccd8U, 0x3dbdc3e43d4a6627U, 0xbd61eb6fbd40850dU, 0x3d46c7b5be223f56U,
  0x3d94155f3d96e221U, 0x3c99173f3cd8ce83U, 0x3d33766fbce958caU, 0xbc65d6a83ce6c4cfU,
  0x3d957bc7b8f34a0fU, 0xbba3f800bd349476U, 0xbd2a2b7bbd2e318cU, 0x3bd8394e3d749f5bU,
  0xbd8cb3ef3dc8d79aU, 0xbd2708d93d34035aU, 0x3db5df9abd79860bU, 0xbd11f2df3c86fd21U,
  0xbdc16be43d194494U, 0xbd9d8f3a3d9937bcU, 0x3b151fd5bc5d6362U, 0xbd100254ba95af5aU,
  0xbcb040283c86fa11U, 0x3d123c24bcdeea46U, 0x3ca3bf0c3d100062U, 0x3c1f0cffbd2e42f3U,
  0x3d4b4456bda4d103U, 0xbcc44cd63c78bfb6U, 0xbda20140bb3ad776U, 0x3cd962a23dd617d2U,
  0xbdd3b2dd3ba0774cU, 0xbd4185e0bd99b9dfU, 0xbd09a3c23d08edbfU, 0x3ce4fd983dc6d217U,
  0x3d7efcd43da0798eU, 0xbd562f053be8975fU, 0xbda7bc06bd6a279eU, 0x3cdccf543cfaa4afU,
  0x3db66536b8033cfeU, 0xbdd34c5a3c750ac6U, 0xbd501c3bbc72ee31U, 0xbd92e0353dd4c67fU,
  0x3dd5b7e3bd011854U, 0x3dc7786dbc2afd23U, 0x3d0cda4d3c9fc01aU, 0xbbceb773bd5584a1U,
  0x3c61c5e4bd1bd2fbU, 0x3ca830083d270fc6U, 0xbc4bb4d33c598066U, 0xbc9a0c79bd53c1b6U,
  0x3e0edc903d2f49e3U, 0x3de7ad88bb9c46c1U, 0xbd28150e3dd4b05cU, 0x3d3ad122bd7c5d59U,
  0x3da3a1293db0fb9fU, 0x3d9cdf48bd523be5U, 0x3de09814bd691543U, 0x3c6af4923d298eacU,
  0x3d66d4e83c8e83d0U, 0x3ba99ecc3c60338bU, 0x3bfc03703d3d9168U, 0xbd1919adbc9f65f5U,
  0xbd4d56983b128fc9U, 0xbd47ce49bd25fcc6U, 0x3d563fa2bc9a1e2aU, 0xbdf9d92ebbf30936U,
  0x3d891789bd27ee99U, 0xbd559c7e3d9d7f9dU, 0xbdaf2ffabcc00572U, 0xbaf8614f3c8118a6U,
  0x3d6fd9b23dcddc99U, 0xbdcb622f3c997cfbU, 0x3b0c58ec3dcf0147U, 0xbd8209cb393b5221U,
  0x3dfeec13be08caf4U, 0xbd2c89e8bb7a709dU, 0xbd0d7b9b3dc1feb1U, 0x3da902063dd37728U,
  0xbdf76d0a3d9f492fU, 0x3dc45528bc8c5d39U, 0x3dd7cedcbda3213dU, 0xbda51882bc92dc4bU,
  0xbd79c3fd3cb7a970U, 0xbcd407863bb6b1d6U, 0x3cb8c0a13d25a867U, 0x3dcea5d83c493d61U,
  0x3dd9baf8be029447U, 0x3b31698bbdba483eU, 0xbdb3b87cbd5c95c0U, 0x3dc32f2c3d80dee2U,
  0xbc16ed703e013899U, 0x3d459ebf3db0f5d9U, 0x3d86fa15bd9a9e50U, 0x3c8865c93ced63faU,
  0x3ca47b1abd90a043U, 0xbcf962483dd3219eU, 0x3df4bf1c3de0a731U, 0x3d901b7b3c19a511U,
  0x3d96fac3bdaf0f6bU, 0x3d8661b73c996556U, 0x3e0909fcbcd3b90bU, 0xbb8cf6febc9283acU,
  0x3dc466e7bd64f6a5U, 0x3d3885dbbabef085U, 0x3e34161b3c869294U, 0x3d648320be062ecfU,
  0x3da5f3e33d277f49U, 0xbc9b72703d216aecU, 0xbc58264bbc8d9105U, 0x3dc6903e3d288061U,
  0xbd6fd7f83cc00bd3U, 0xbce8ef063b94bf6eU, 0xbd8ad7993dee7a17U, 0x3da1fe013c346355U,
  0x3c8f7c9e3d8ed9a7U, 0x3c52b2f7bd0d7271U, 0x3b86edb1bd877ee6U, 0x3c472dc93da03680U,
  0xbcb650a13d29cbd4U, 0x3d34fed3be0803c5U, 0xbbdeec083bdbe521U, 0x3d29e123bd947c7fU,
  0x3db56c8f3d9332efU, 0xbd9db3603d88a369U, 0xbdc44fe53dc33a83U, 0xbd4534edbcc22fdbU,
  0xbd5ecafb3d838e0bU, 0xbda3a025bdaee265U, 0xbdc2e2ad3dbcbccbU, 0x3dcb9ff93d3f8dceU,
  0x3c2b3c7c3daccd4aU, 0x3d6c45833d7effdeU, 0xbda96cc3bc85015bU, 0x3dc05ae5bd8707c4U,
  0x3d0a87563d6ad7a1U, 0x3de98bb53c63e5b4U, 0x3e17b51a3ccc2943U, 0x3d82c8563d7db4c6U,
  0x3d4c1c17bda30c1dU, 0xbdbe49243cb2efb5U, 0x3dcff24b3ca0971aU, 0xbccb6c9a3da3d2fdU,
  0x3d31b343bd14e943U, 0xbd79fd4dbde40d6eU, 0xbd8ed007bd097b0bU, 0x3d8254f13d9b447bU,
  0x3d1654f3bd51a094U, 0x3dbf891cbc27cae1U, 0x3d0bbe923d73b1adU, 0x3c86f6613dac64afU,
  0xbb10a957bd0eb60fU, 0x3ce3dc34bd4e239eU, 0x3c4a417c3d076905U, 0xbda32784be0eb286U,
  0xbc94e9e4bd455be6U, 0x3d83eb3d3c9e1969U, 0x3da35f883b3d4411U, 0xbd6aa8d43cb0a8dfU,
  0x3c8bc4dfbcd1742cU, 0xbd0ec0333dbad05bU, 0x3d30c8c23df52070U, 0x3c03e7ffb9a87b15U,
  0x3d293ef13cdf7cf4U, 0xbd4eaee8bb599f84U, 0x3cf6344fbd945107U, 0x3dd874093cc1cbfcU,
  0xbd20a1783d6fa63eU, 0x3d1fb191bd9e778dU, 0xbca68340bd6f0253U, 0xbd2167f43d9ea911U,
  0xbd1a91c93ddf9ea3U, 0xbd8f06063d0c7cb6U, 0xbdb3b4e93dd368a3U, 0xbd7e00b3bc82d884U,
  0xbd590d4a3d082aaeU, 0x3ca191c23c4dc236U, 0xbc1ca0343d8b9bd5U, 0x3cfe19583dc1356eU,
  0xbbe48a39bdaa510aU, 0x3ca72bccbc1579a8U, 0xbc13c6af3cdf8172U, 0x3d0d2b4ebccec192U,
  0xbdbe6a3c3ce11ef2U, 0x3d272671bca40786U, 0x3e0d139fbd265caeU, 0x3b509ee73c88bad7U,
  0xbd1bcf68bcbbcb9fU, 0xbe00bac23cd83248U, 0x3c9c331ebd6735b8U, 0xbd07bbd33e0cb9c6U,
  0xbd2a63b93c09b6deU, 0xba95fa6c3d27ada3U, 0xbd8e831f3e2077c6U, 0xbd04a14e3d9141c4U,
  0x3d0edcffbc8ae26bU, 0x3d848242bda6b4ddU, 0x3d3f96bd3c4fb965U, 0x3c71d6ccbb0b194aU,
  0x3d4cd55f3cf60991U, 0x3c7276633d28e8f1U, 0x3dac0582bc5e4e0aU, 0x3cacf903bde4937fU,
  0x3d720e7bbcddd069U, 0x3c79739e3cc9d38bU, 0x3d2e845b3bde51faU, 0xbd3690b2bc8cc655U,
  0xbd3a821f3de1149fU, 0x3933d19d3de18197U, 0x3ce65cf23e08f5b9U, 0xbd8e5bff3c37e9beU,
  0x3d74b81cbca90ca4U, 0x3cb2eecc3d69431fU, 0x3c24242d3d5690e3U, 0x3dcbfcf53dbaa977U,
  0x3b8a4ff13daecffcU, 0xbd25549cbdaa8d54U, 0xbdaa1f7e3d8442b4U, 0x3d561a95bd6ab131U,
  0x3e059812bc8f716fU, 0x3ddff94b3de1604eU, 0x3c240c65bc569797U, 0xbd04c1c4bd558a62U,
  0x3d080547ba826998U, 0x3d2f147e3d3894e7U, 0x3d3cec193c931ecbU, 0x3c6cd3dd3d10a750U,
  0xbd18a88dbd919f77U, 0x3c735f80bc1a8dcfU, 0xbcba1da33d8b77efU, 0x3dca1664bdf0c260U,
  0xbd789f503d099389U, 0x3ccdd07a3c12511bU, 0x3e25f187bd5dc257U, 0xbd6cad233cbb6001U,
  0xbd58e2943d7bf628U, 0x3d2167073b5a9114U, 0x3c52077d3d351212U, 0x3d7e59ddbd5f5c4dU,
  0xbca0b1653d9565caU, 0xbd9252e13c3581dbU, 0x3d623af73c4fd4cdU, 0xbc10b15b3d8c5341U,
  0xbc8a61653c574db9U, 0x3cd0c56cbd0a534cU, 0xbcbc64c03c6a63bdU, 0xbd02f66b3da33985U,
  0xbccbeeb03d3d3a0eU, 0xbc959c1fbd942447U, 0x3d22c96f3daeff41U, 0x3d6b2ca4bda59f01U,
  0x3d7a88a5bc1d138fU, 0x3dc45e3e3cc3d07cU, 0x3d1a588b3d209effU, 0xbd87ab84bd7ee44dU,
  0xbd51bc1ebd9c6d56U, 0xbc365b583d894873U, 0xbcf54f6ebcedee0aU, 0xbcb94cc13d11114cU,
  0x3ae49179bca65bc1U, 0x3cf918cebd9395b9U, 0x3d70e9e23c71cd03U, 0x3dabe11abde530cfU,
  0xbd4515043dded792U, 0x3cc9b5c03dbe7f34U, 0x3b30b4523ba0d481U, 0xbab7fe683bb9ba61U,
  0x3d8e62973d91c746U, 0x3d7c48e33d55b2aeU, 0x3b8c14da3d818da0U, 0x3d8a1553bd6058bfU,
  0xbd96cb72bd3cedf9U, 0x3df3f440bd8dca8dU, 0x3d7ffc70bafcc110U, 0x3de298123c03ff76U,
  0x3de08ecb3c238aa4U, 0xbdcb3e143df3c3e9U, 0x3d0872743cc527b8U, 0x3da03d5fbdb2ff88U,
  0xbbd1600c3cade93eU, 0xbd6b2e423ced4f99U, 0xbdf3c366bd9c10bbU, 0x3caede2b3b650655U,
  0xbc7af2d63dbfb28cU, 0x3d7c1453bd7a5eefU, 0x3cf64f2a3cd39a0eU, 0xbdd209403c2bc336U,
  0xbca54c3c3d78e9f5U, 0xbd9195da3d249196U, 0xbd92be54bce44c6eU, 0x3cb76d4fbda27f04U,
  0x3d5fcb2dbddc168bU, 0x3da32053bdb0d37eU, 0x3ceebe6cbd7921a0U, 0x3beff8af3becd569U,
  0xbd2d5a7c3d464ff2U, 0x3c823505bd97c62cU, 0xbd20a4f1bdb59060U, 0xbde418d5bbcd15d3U,
  0x3daf015dbc16e5aaU, 0x3d689ab5bd8cf02aU, 0xbd1500bebc06b9dfU, 0xbc2e2e57bda8175dU,
  0x3c460727bd7ab985U, 0x3c2264f63d48915cU, 0xbd16f9a03d015483U, 0xbd4a450cbd43e97bU,
  0xbcb1f084bd187e40U, 0x3d530d163d85485bU, 0xbc4e08b8bd5a9f3eU, 0x3da20b343cef397bU,
  0xbe0fd3653c3edf97U, 0xbd8110c73bfd8905U, 0xbd631858bd14dcc2U, 0xbde2a5e13dabd114U,
  0x3dcafe543d8acee7U, 0x3903f52cbbc71f45U, 0xbd65396a3d6c9cd4U, 0xbd63b83f3d4c3d82U,
  0xbdeb25b8bc594817U, 0x3c9ef516bd525c8dU, 0x3c94a16fbcb995b0U, 0xbcd452343d8647cfU,
  0x3d7147fd3d3a9d04U, 0x3d1343d53e06d6d2U, 0x3d25eae93d49ff56U, 0xbb89387cbdfee6c7U,
  0x3b81b5133c87b67fU, 0xbdca5cabbcb7eb49U, 0x3d28a4d0bda0e804U, 0x3d4046c5bbbf3443U,
  0x3c84fc1a3dbd3734U, 0xbc85501e3d3dd43dU, 0xbc09fe2f3e105c38U, 0xbde9ae9cbb687edbU,
  0x3d7b48a33ca53800U, 0xbd0d58993d29b847U, 0x3d1edec93c2f49fbU, 0xbd6fce653d07ce42U,
  0x3db823603db39fcdU, 0xbd792a72bd0f95c4U, 0xbd8025c93bf442f5U, 0x3b82602dbd0ccb21U,
  0xbd6d696dbdc2f22aU, 0xbdbe77c93ce38ff4U, 0xbc8a0e1e3bcd6240U, 0xbd87ff38bc9ae707U,
  0xbd53f0883d156571U, 0x3cc6335abdd7bc42U, 0x3d1431b43cde70f0U, 0xbd56b347bd8b74f8U,
  0xbd248e83be2c3f5aU, 0xbdbbd5393d46f1bbU, 0xbdf26f2d3b694157U, 0x3d52eb5dbc780217U,
  0xbd8b83ddbdd1f687U, 0x3c84e670bbe117e3U, 0xbc7829c33c3fb097U, 0x3d8cc64d3d6c96f4U,
  0xbe1027ac3cff2243U, 0x3d97327e3d4d89a7U, 0x3c339880bd04bf96U, 0xbab176133d73b9afU,
  0x3d95cb2bbd7a4d28U, 0xbd6c753e3d554f24U, 0x3bc116b7bcad5aa9U, 0xbd7adde8bce7169bU,
  0x3cd38bbc3d9e1b21U, 0x3d5226c4bd1c9fe1U, 0x3daef1dfbe019085U, 0xbd1391eb3ca4925aU,
  0x3dd746833d4dc3dfU, 0xbd2162043d9719fcU, 0x3d838dd33da563a2U, 0xbccba9f2bd846d88U,
  0x3da3ffec3dca84d3U, 0xbd6055bc3bde1717U, 0x3d05c0debd566bd8U, 0x3dab6b333e02e0b7U,
  0x3d22bb743d4aa2e5U, 0x3d821e67bd9a5e34U, 0xbd5731ae3c24765bU, 0xbdc4fcef3d40db6fU,
  0x3c9a84ec3d6dbaf5U, 0x3c19d07cbd27e280U, 0x3c97a424bd083668U, 0xbd86e83ebdb5691fU,
  0xbd548f813c1b8e96U, 0x3c52a164bd0b14c1U, 0x3ce562e1bdb8e7f9U, 0xbc0c9b22be030a7fU,
  0xbd820e36bc5d51f7U, 0x3b1514a9bd597037U, 0x3ce9f5933dc28c2fU, 0x3c9a5a64bd7f9c3bU,
  0x3e06859bbc9f60aaU, 0xbd9cc792bc467a09U, 0xbd8542993e049a0aU, 0x3dc441423d21ff5cU,
  0x3d790ce5bdbcb4d5U, 0x3d8f22b63d38d39dU, 0xbdc603adbc83e34eU, 0x3cd4fc6e3d354d78U,
  0xbda477413d5976fdU, 0x3dd2085dbd7413e2U, 0x3d75bb5f3da08387U, 0xbd94f8bdbcc7a859U,
  0x3c3517093d9143bcU, 0xbcd67bfc3da8c740U, 0x3d723f01be193861U, 0x3cc9cb4cbc9ba8a8U,
  0x3ddcb282b796dca3U, 0x3c46df53bbe63984U, 0xbd33cbcc3d7a1e33U, 0x3d2d18b33d0687c0U,
  0xbda94f0e3d7b3b43U, 0x3d60c7153c145a27U, 0xbdbf1536bd8c0a93U, 0x3db13ef73d9f60a8U,
  0xbc008dca3d801717U, 0xbd9ea583bde83b18U, 0x3d6ac2b5bd11288fU, 0x3badf180bd0ea86eU,
  0x3d8fd67b3d4ef4c2U, 0xbbb279bb3d45de36U, 0x3d4e04d3bb802d37U, 0x3ceaeb9e3d43a8daU,
  0x3d8dc8633c1f85f3U, 0xbd42277e3c35eb9bU, 0x3ca472eebbdd580cU, 0xb91f11babd996762U,
  0xbcdd969abd55c40dU, 0x3bb73a21bd145d4eU, 0xbc7333cdbd91e719U, 0x3d658b5bbd2f2d6cU,
  0x3d4750293cb94448U, 0xbd9158763ccb0a9dU, 0x3dad2b943d58e1f8U, 0x3cdd6e393d13697bU,
  0xbd5a8341bd710cfeU, 0x3bfc45ddbd635674U, 0xbda05ae9bd525126U, 0xbd7c05713be573e4U,
  0xbb1a9fc2bd4fb045U, 0xbe1389f33dc73bdaU, 0xbda9e3f33e053c5aU, 0x3d1623e63d9b4314U,
  0x3e04e0d0bc2d2ed8U, 0x3d18acf8bcaba6eaU, 0xbdf20b2c3d5646f7U, 0x3d419c27bced942bU,
  0xbdeb566a3d96add1U, 0x3dbcc5a0bd0488a7U, 0x3ccf2ab3bca398caU, 0xbdace4f33c2010f4U,
  0xbdf86cc33d42e59bU, 0x3dfc4abe3c9d9910U, 0x3d42ce24bdaadafdU, 0x3d10f34a3d550aaaU,
  0x3bd493ec3c97c6c5U, 0xbd66df5abdbae733U, 0x3db94f9fba981e40U, 0xbd849c3d3d1033d2U,
  0xbd7a3db8bd10b8dcU, 0xbd11dd053d50faeaU, 0xbd99aa7bbd5e6e2bU, 0x3ddafd9b3d11cfa9U,
  0xbdf0f6003d4e713cU, 0xbc9643363cdf22f0U, 0xba579ae1bd71d948U, 0x3d22e17dbce21778U,
  0x3db1cecd3ca4ad87U, 0xbd3889a7bd0baca2U, 0x3c4c36e0bca9757bU, 0x3bdadd633b2a835dU,
  0x3d135e3d3d1dad17U, 0xbd498654bd3de776U, 0xbba43e963d4f6c97U, 0xbd5b3416bc7b0adfU,
  0xbd83634dbd93c410U, 0x3d99c1bbbd522e09U, 0x3d946d64bcda502cU, 0xbd034fd5bd9bf3ccU,
  0xbd521f99bdb69175U, 0xbc9730243da81fdcU, 0xbc3e1e78bd9f9b6fU, 0xbd44b50cbd259368U,
  0xbd47947abcb67bc7U, 0xbda7cd42bcf1c5baU, 0xbdadc5903c670bdeU, 0x3d6c0881bd4285d7U,
  0x3a39d6083c1d1a00U, 0xbdfa613d3d4042ddU, 0x3dd2534e3d897bd0U, 0x3a2c9d84bcf13a33U,
  0x3dbd2a23bd67119eU, 0x3d24eee4bd29d10cU, 0xbd8f470e3d6b9328U, 0x3d819e81bd2290baU,
  0xbd419834bb0a186fU, 0x3cf942383c8ad02aU, 0xbbf3092e3db0eaa6U, 0xbd880ef03d484767U,
  0x3c0f8914bda75a6eU, 0x3d3290173d98fc3aU, 0x3c0e973c3ce5754aU, 0x39aeed80bc990bedU,
  0x3d7b301bbb935b5dU, 0xbcfb78bb3d1b7a6cU, 0x3d393f913d51a21cU, 0x3bd40189bdedbc75U,
  0x3c3156563d94d921U, 0x3d27b11a3de4fb2cU, 0xbd90234cbdb8fd31U, 0x3cfef14bbd2132f9U,
  0x3d858f573c2bd1b8U, 0xbd13d62c3bf05d7aU, 0x3a9a3ff83d4d60c0U, 0x3e4cc5a33d8edb81U,
  0xbd3c4e493d4123e9U, 0x3d1843233c83ec14U, 0x3d1d9210bc75cbb0U, 0xbd4550b83da9afe0U,
  0xbd706bdb3caa596cU, 0xbccbfec3bd1ebd96U, 0xbc8aa633bd22a276U, 0xbd73072fbdf3068fU,
  0x3d67dcd53cd3337cU, 0xbdc25fe2bc3d4b60U, 0xbbaa4ca1bc1b0139U, 0x3da466ecbd235d79U,
  0xbd4a320b3d042663U, 0x3d8142b7bc29f3e1U, 0xbcbe0781bd0629a3U, 0xbc8750963c16e1d1U,
  0x3d2cb14a3a8c4307U, 0xbd19dbbe3cdcb278U, 0x3c619670bce9ed6fU, 0xbda4d21b3d66d1e8U,
  0xbd0079fc3c4663c5U, 0xbbfc53c2bd1cc3f3U, 0x3b96b5663d052f22U, 0xbcdb6e04bc9a2d99U,
  0xbb00b327bdcbea5fU, 0x3d056ec1bca22121U, 0x3ca0e79cbd0f12ffU, 0x3d1a0186bd7b7909U,
  0xbd7a4ebabd893ac8U, 0x3d6a68a5bd527f60U, 0xbd3ce6373cfc6fbdU, 0xbd4dfdd23d8e0c64U,
  0x3d02fb513e0c36aeU, 0x3d79e9533ca3f445U, 0x3bea731fbdc2978dU, 0x3cb3124d3d2c566eU,
  0x3d95368fbe229304U, 0xbd49bfcc3e1452acU, 0xbd95679f3d8dc39bU, 0x3c5ca2123d201f24U,
  0xbe1438683d80fe8cU, 0x3dd3bf6abd3d8af8U, 0x3d2a4355bd2e3d2dU, 0x3d67f38abd622e1bU,
  0x3c07f22b3dd2d441U, 0xbc1d23bbbb6cd83eU, 0x3ddec4fc3cbc6b8eU, 0x3dff9dccbd2d67cfU,
  0x3e0c30fcbb751b47U, 0xbaf750edbc73a38bU, 0x3d0333dabd3d1d07U, 0x3d09a2de3d3c2f64U,
  0xbd2ef354bc49fe49U, 0xbdcbcb483d19862fU, 0xbdececa4bd4acfa2U, 0x3da6a6dd3d6f9972U,
  0x3dcd468b3be3da9aU, 0x3d8840293d95e07bU, 0x3d972bb7bdf37e1aU, 0xbc1d4554bd95522dU,
  0x3c9dcde73ddf72c2U, 0x3d1c56c9bd4ac0b6U, 0x3d02a008bab6cefcU, 0xbd924ed93d424929U,
  0xbcbb7e79bd730557U, 0xbc0bed3ebda3362aU, 0x3c4311543d85ee57U, 0xbd1cf4033d49e73bU,
  0x3bd1914d3d960a66U, 0xbdb498f5bdb25df0U, 0x3d1ec6393dbf7547U, 0xbc440142bdb76a98U,
  0x3d716638be42f61dU, 0x3c8a896bbd2170e1U, 0xbd4453b93cd00cbdU, 0xbc5ac542bcecd1d9U,
  0xbd96c235bd08b294U, 0x3d7f7594bd6a04edU, 0x3d14fc5abd888f4aU, 0x3d45f0dfbd07f965U,
  0xbb8b63d2bd025cafU, 0x3d613e743b9618d8U, 0xbd5eb663bc99f390U, 0x3c7afd3abd970b40U,
  0x3c7865cd3c80b800U, 0xbaca71b03de2c0a8U, 0xbe1950323cb26573U, 0x3de934d43e001abdU,
  0xbd4997943d19b648U, 0x3defaea13d3fdc5eU, 0x3d76c34fbdc105fbU, 0x3c41e48c3d9936b5U,
  0xbc3b5daf3e251a2dU, 0xbe2a1d72bd54126aU, 0x3d1de2d13d143dd1U, 0x3d560567bdcc2710U,
  0x3e5286e5bd0da325U, 0xbdfb35443cdcfa09U, 0xbd8c195e3d179f03U, 0x3d697803bb27ee86U,
  0x3d295bbcbaa1eed0U, 0xbd70cc4f3bb1e076U, 0xbdc0a16c3c39db02U, 0xbd52d522bcfcc43cU,
  0xbd4b544e3b250c17U, 0x3c3a2f1abbe07b37U, 0xbc84e6b7ba65afa7U, 0xbd0136e33c9aa6deU,
  0xbc04f01a3c898a8eU, 0x3d7767123d889c9fU, 0xbda66ebebcff991bU, 0xbdf6834fbd8d88a2U,
  0x3dbcba0bbd539dd2U, 0xbdb8c93cbda95039U, 0x3d87d41cbc7aa4fdU, 0xbd87a46c3d458657U,
  0xbd8c3fd0bd5393c6U, 0xbcf2a20dbd948b1bU, 0x3d4b11f6bc177de8U, 0x3d41d8773cdea38bU,
  0x3dceadb5bdd88dd6U, 0x3c78a77d3ca014d4U, 0x3c585c93bdc3da07U, 0x3da7d204bd87fdfeU,
  0xbd730a49bd4eb9b0U, 0x3db68712bd5a8acbU, 0xbcf16cd1bc26e258U, 0x3ca03c09bd2ed358U,
  0xbbe406813d504559U, 0x3d10a4763d5ff72bU, 0x3d8a7a58bc1d8fe7U, 0x3d403f883d3c58c0U,
  0x3d62621cbc735343U, 0xbd3bb5383dd70fedU, 0xbb8d14243c15cac1U, 0xbd4154be3db102f6U,
  0xbd593d833d5a597eU, 0x3d9b6f5b3c7fd16eU, 0x3d623443bce1f1dbU, 0xbc160b6d3d262997U,
  0x3daf3e893d58b931U, 0xbdd80ebdbdbdf617U, 0xbbf90e3d3cf41109U, 0xbd654debbd1ff87dU,
  0x3e3e7c593d1a8f7eU, 0xbdd4c7d33d8fabdaU, 0x3d373b303caa034eU, 0x3d940ab33df0d282U,
  0xbcdfeb693d89ba9dU, 0xbde6f1d2bd922ea4U, 0xbdcff47ebca81578U, 0xbd79fe393cbbfd4fU,
  0x3ded28f03d850748U, 0x3d38826fbb351863U, 0x3ca8870abd6392e3U, 0x3c562cffbd7307a9U,
  0xbceb21643dac75e8U, 0x3d5829313d0c63d8U, 0xbd7ded223cac52dcU, 0xbd2f1b903d9eba99U,
  0x3d7c6c1d3cf1c56eU, 0x3c284a40bd7aa228U, 0x3dcb88e43d7b9f36U, 0xbd03c8013ca57e01U,
  0xbd93d5d0bd2c55e6U, 0x3cfbcea3bd9ebc32U, 0x3d39f204be21ddefU, 0x3d14655fbd775437U,
  0xbe02014d3ca68d80U, 0x3d5bf475bd1a2c80U, 0xbc420fa33ad587f3U, 0x3d3486453d33f4e7U,
  0x3d40fcb63d1dc5fdU, 0xbd05197a3c210457U, 0xbd736228bca7952fU, 0x3c1b12493cd200fbU,
  0x3cfe699cbd120269U, 0xbe20f1323c2eb639U, 0xbe1c556fbcfd62b2U, 0xbd0cb2b33db746c4U,
  0x3e0851f0bc69acc2U, 0x3de4056d3da9f381U, 0x3d1c5972bd67fb40U, 0x3d476f4b3ddeefaaU,
  0x3d086698bd3d4f7aU, 0x3ca573393d23d32bU, 0x3db253a3bd8a32ffU, 0x3cd5e1a73c0d0d98U,
  0xbd25b3e43cb0f7aaU, 0x3cac2db23dd9eb03U, 0x3c8dc873bd6e35f1U, 0xbe00f57b3c971abbU,
  0xbb21139cbc0d1befU, 0x3abcb16c3d94d41aU, 0x3c3edead3d17dbe1U, 0x3daf6b19bd9e247aU,
  0x3deca5a43d9fd763U, 0xbd1533d43c361f99U, 0x3c6ad8be3cb060d1U, 0x3cd0a33e3e10ebafU,
  0x3da13890bc37d500U, 0x3d0c5e9dbcdf884eU, 0xbc059acc3db9d70eU, 0x3cef97c8bd200125U,
  0x3c94ef9dbd0957d2U, 0x3cf6bf88bbf3ad05U, 0xbcd8bed7bc463513U, 0x3cab6c85bd0d1c0fU,
  0xbbf1f6e73d5cb011U, 0x3d9da282bd3733a8U, 0x3d82d51fbdc48135U, 0xbd2705943cdcae7cU,
  0xbbf1b446bd71fad6U, 0xbd32408a3bd6bd83U, 0x3d5901c3bd30a151U, 0xbd0286fcbb0bd861U,
  0xbe0718bb3d330784U, 0xbbc881c23ce0d8baU, 0x3ccfda45bd2cd8c2U, 0xbc87f501bce24096U,
  0xbd24c337b9109cc3U, 0xbcd196d53daaea7bU, 0x3cf658873b45e7bfU, 0x3dabf0b5bc8f6b8bU,
  0x3dbdd671bd8637d5U, 0xbe053795bdbd61cbU, 0xbd0b8911bd4cc67fU, 0x3bd4a3473d3c7f31U,
  0xbcfdf9bd3dc92571U, 0xbd5708c1bcbff853U, 0xbd9a7e08bcccf322U, 0xbd464c7e3dc4314dU,
  0x3c0aa22ebb5dcff7U, 0xbcec64f03d89c47aU, 0x3d9014923c2c2c81U, 0x3d4aaea6bae130cfU,
  0xbdadc4793d9ec87cU, 0xbd9c37b93d10279bU, 0xbd59a0073cbe9612U, 0xbd694e10bc8aebd1U,
  0x3d42e415bd1a662cU, 0x3de765ec3bc0d9e3U, 0x3c7197083da06d0dU, 0xbd0bee8cbc67cb35U,
  0xbb734e35bc01da29U, 0x3dd15d093de6cb03U, 0x3d951eb53c4a90a4U, 0xbd26d71a3d997e46U,
  0x3d5f8ce3bcb50bc5U, 0x3d3eae183d28237bU, 0xbd9bfda93c7bac8eU, 0xbb4277c73d535afbU,
  0x3d981521bc6c2f3fU, 0xbd09f9af3c542d12U, 0x3d15ac493cda7e5cU, 0xbd088bc73dcdf277U,
  0x3cf76ddd3d760aa6U, 0x3ad115533d48a2e8U, 0x3dd03ccabda3610eU, 0xbccd4c793d490dcdU,
