
/**
  ******************************************************************************
  * @file    two_three_data.c
  * @author  AST Embedded Analytics Research Platform
  * @date    Tue May 31 22:34:43 2022
  * @brief   AI Tool Automatic Code Generator for Embedded NN computing
  ******************************************************************************
  * @attention
  *
  * Copyright (c) 2021 STMicroelectronics.
  * All rights reserved.
  *
  * This software is licensed under terms that can be found in the LICENSE file
  * in the root directory of this software component.
  * If no LICENSE file comes with this software, it is provided AS-IS.
  ******************************************************************************
  */
#include "two_three_data.h"
#include "ai_platform_interface.h"

AI_API_DECLARE_BEGIN

AI_ALIGNED(32)
const ai_u64 s_two_three_two_three_weights_array_u64[ 2857 ] = {
  0xbd2a9505be2deaf2U, 0x3cfa982d3e1c287cU, 0xbd9d34ac3e050e71U, 0xbddcb3553d08df21U,
  0xbcdc9eda3d8ff65aU, 0x3d9f59fe3e2568f2U, 0xbd925062bbc53954U, 0x3e167d0c3b647998U,
  0xbe40e67f3e190eb2U, 0xbe02674fbd0709f3U, 0x3e36c5f83d76f306U, 0xbd1308913d937ecaU,
  0xbe07432dbd474e00U, 0xbd295acc3e1291a6U, 0x3de7db8d3dc4f153U, 0x3c9fa0ac3e0daa12U,
  0xbdcbdae23e4c9c71U, 0x3c083f6f3e1f2a32U, 0x3db788d5bc185f32U, 0xbe12fe543dc1a679U,
  0xbd72a2f83d7f6372U, 0x3ddb439c3a74bcd9U, 0x3e07d809be3232fcU, 0x3e271960be09b6bbU,
  0x3da34ffd3de47512U, 0x3d175efc3ce24e55U, 0x3ddf2639bde4afe3U, 0xbdfe0e343d4d6952U,
  0x3e22fcc5be41a1f8U, 0xbcdcc912bd5df953U, 0x3df97088bd9decc4U, 0x3d9f9822be3d7404U,
  0xbd71c4843da2c03cU, 0x3c0dc6cfbd33dce3U, 0xbd23475c3e759184U, 0x3e84a9773e043818U,
  0x3e4713eb3db3fee1U, 0x3d2961cf3e2d3535U, 0x3cc7e1e93e50b349U, 0xbc5eb514be08ce9bU,
  0x3e24021e3e1781c9U, 0x3df54d1fbe22eeeaU, 0xbc5c417bbd3da305U, 0x3e76dc163d6a0711U,
  0x3da3dd7b3d5c01f3U, 0xbe5722e5bc750e8aU, 0xbd9c9cfb3dd6c2f5U, 0x3e3119dfbd1d5a7dU,
  0x3e23a21e3cfe2faeU, 0xbb73b12f3e58c8f5U, 0xbe15963b3df3f3e1U, 0x3d9775e93d468252U,
  0xbd25ea9fbd984e96U, 0xbd8d9739bd04f7beU, 0x3eabdef43d9cdf3eU, 0xbdd977a13e100825U,
  0x3cdd55bd3e4c6390U, 0x3e047de9bc1190abU, 0x3e8543973cc4994bU, 0xbcff73e93da98c37U,
  0x3db6e9b2bc9b0f0fU, 0x3e080f81bdfce95dU, 0x3e12dcf1bd4a77deU, 0xbe0fb216bde2eef7U,
  0x3d503ab9beaa54c9U, 0xbe41f7813db47010U, 0xbdaa5fab3d5bfdccU, 0x3d848882bd6164f6U,
  0x3dfe5274bb7bec2aU, 0x3e10f7493e51e589U, 0x3e445109be5268c1U, 0xbe43558fbe05740fU,
  0x3dc7ef063cc1ebfcU, 0x3e30e5b93d11fed6U, 0xbd078bc8bdd4c152U, 0x3dccdcd03da9c786U,
  0xbd8c2c843c92dcc8U, 0xbe132e293e29037aU, 0x3e6ce50c3e113486U, 0x3cd798463d854bc1U,
  0x3e6299f33cc3b0cdU, 0x3ebea5bc3f01fce5U, 0x3e9b44d13cb7cb3dU, 0x3e085c4c3e8d199cU,
  0x3e967e013e12a424U, 0x3e9206fd3d0a8438U, 0x3e6b8ab83df674b3U, 0x3e2fda1e3e0e52f3U,
  0xbf7fd378bf0495a4U, 0xbfc557cabf1293f2U, 0xbf26b7dbbf15611dU, 0xbf3933adbf57d570U,
  0xbf549853bf59a0d5U, 0xbf77a9f0bf13055eU, 0xbf8a4dc2bfb3cc63U, 0xbf804a6ebf3dda68U,
  0x3d0b03443ce81021U, 0xbd337945bc02aad4U, 0x3d643bdc3d5bcfd4U, 0xbd1b4bc2bce98159U,
  0x3dace248bd906315U, 0xbd8687a0bd65fe7cU, 0x3e0620823d7a6c7cU, 0xbdad4427bdd6de57U,
  0x3d0770d3bd110f28U, 0xbdba5e2cbd6d4eebU, 0xbd9e2ef13d783468U, 0x3db920aebbae2baeU,
  0xbd6b54813cb50efcU, 0x3d883a3c3d73d0ebU, 0xbd67ba6fbbc51458U, 0x3e39c144bd282133U,
  0xbe0523b9bcefd57dU, 0x3d8fc4b4be1b8d2aU, 0xbe0363e4bdd15c2aU, 0xbc50bd70bcb2bd30U,
  0x3d94d2d83e0ddaceU, 0xbdb9ec4ebe0b258dU, 0xbb27e4d2bd9992bdU, 0xbc79bd243d28030dU,
  0x3d06ff29b99c281eU, 0x3d97d2cdbc3d4fa1U, 0x3cbb1fce3d462b89U, 0x3e04065dbd804578U,
  0x3dc1719a3d2b6c11U, 0x3db04e4d3cd31dcdU, 0x3e25c2c43e113cf7U, 0x3dd08af53d13623dU,
  0x3d8706283d366713U, 0xbdfebfc5bb1f8a3aU, 0x3d7ee51dbdd3a53fU, 0xbdd6d9533e3011eeU,
  0xbe088bcfbc893fbeU, 0xbd9092463ba7eaf1U, 0xbcbfc696bca11a4aU, 0x3d97923b3e4a6f0eU,
  0x3d9e45a0bd1560e9U, 0x3dcae844bd9d8701U, 0x3cb2e1533cc319a1U, 0x3e1165003d9eed3cU,
  0xbd607943bdcc2e9eU, 0xbdab1e19bcbd29e8U, 0xbe0348ec3d5ca993U, 0xbdbb63ad3db54a85U,
  0x3cf067cbbd8f7083U, 0x3e0c79edbdfb5c6eU, 0x3d0b22d93d19be43U, 0x3e0cea06be190c2dU,
  0xbd4d02103e02c0d0U, 0x3d801ba13d6cfb94U, 0x3debf534bcc51fd1U, 0xbd987b663b3092d5U,
  0x3d12b71e3db6edddU, 0xbd8929153e10eb0eU, 0xbddd0b73bd54e371U, 0x3bfe2dd73e046e96U,
  0xbd3b9143be2ff556U, 0xbd43a3db3de29767U, 0x3d1353c03d7f8362U, 0x3da8476f3dd837c6U,
  0xbc6755cabda1f620U, 0xbd8c97a63d44abdcU, 0x3e10ebb93dcc1b29U, 0xbc9c776dbda20b75U,
  0xbcd97938bd13c4aaU, 0xbd9492c43d249a52U, 0x3dcb57993c791714U, 0xbb22f38d3d8122bdU,
  0x3bfcb35dbdbe5f64U, 0x3c8f88d0bd96f83eU, 0x3e09d0683be5782bU, 0xbdab8c4e3e083127U,
  0x3d978a9b3dfe1ca8U, 0xbdbfc18ebdd54e00U, 0x3dc3ae3e3e26dce1U, 0x3da2be1fbdde62ddU,
  0xbd950ff43d82b707U, 0x3d6ede23bd4a9a0eU, 0xbdaa7d26bdff305cU, 0x3dfe09693c85e3cfU,
  0x3a4ce742bd564451U, 0xbce08c2ebdc7a3a6U, 0x3dce2fb3bd852c1eU, 0x3c68c460be24d438U,
  0x3d450df6bdafa002U, 0xbe0a12053dbccbf9U, 0x3d4572173de79b7dU, 0xbd65f233be078fd6U,
  0xbdc55d323cdca122U, 0x3c1e9a7fbdea9419U, 0xbe1c7fc9bd8d2ef3U, 0xbe0c08033d26a60eU,
  0x3dda3ed13d3be517U, 0xbcc090d6bdc1ba55U, 0xbdc2e6a5bdd5811aU, 0xbd76688e3e629caaU,
  0x3db228a73d579dddU, 0x3d8c4ec3bd803ce3U, 0x3dc9b0273e0c165dU, 0x3d177d393d5492e5U,
  0xbd4956093dfd3ab3U, 0xbd8e3488bc3cd9a5U, 0x3ce9b1c9be008d01U, 0x3dcfa020bdd9fa22U,
  0x3de23b243d9878d0U, 0x3d0565dbba840a18U, 0x3c648085bba4bdf9U, 0x3dd8b8d0bdfb113fU,
  0xbc49b562bc87dd4fU, 0xbd55e654bdf81b2dU, 0xbde0a6ffbd96aa44U, 0x3ca884383d9a3557U,
  0xbe175bef3d1b7538U, 0xbd4b72413de540b8U, 0xbe31bdd2bdcc81dfU, 0xbcb150773dffff14U,
  0x3d87c8a63d353d8bU, 0xbe1a76d6bd2805c1U, 0xbd2c3204bd1a354dU, 0xbc2de0b5bda9d749U,
  0x3d46aa40be11a5f8U, 0x3de7b10abc0ed102U, 0x3e042ce63e25fbb3U, 0x3dee3505bd59ef11U,
  0x3d85bae7bd15a5d4U, 0x3cf2586a3dabe0fdU, 0xbd4e2d90bd55f7d7U, 0xbd0d3e4b3be4d215U,
  0xbdbee095be2204a0U, 0xbc2bc902bdaefe6aU, 0x3dd184453acb8593U, 0xbcbba342bd9589f8U,
  0xbc664fba3e11026fU, 0x3dddc1be3bf10a14U, 0xbdcb4b4f3d052e49U, 0xbcf893da3d379204U,
  0xbe0f6da43ddd8eb6U, 0x3c221427bd9b559bU, 0xbdac3b6ebd93a6b2U, 0x3d62b325bccd2e70U,
  0xbe0f9cd1ba1b28c6U, 0x3e534ff43d9850d0U, 0xbd90a9a63cd30a06U, 0xbcd0aba0bd940494U,
  0x3b9234d73e0ac864U, 0x3d3c17efbd47f5f3U, 0xbd950277bc36c46cU, 0xbc4b3849bd84a4c5U,
  0x3d86811fbd80449bU, 0xbd7d53c5bbcd1a1eU, 0x3d9de15f3dfe6e9dU, 0xbdb6b9373d9298b0U,
  0xbd76fd3ebd4282a5U, 0xbd95ae733df5f9d8U, 0xbdddbd623e04e244U, 0x3cb9a1663d8eb45bU,
  0xbdf1e8febd264945U, 0xbd55b2583de310b2U, 0x3e1f6d173d15403dU, 0xbe0fa079bd64419bU,
  0x3d4cd119bc8e27d8U, 0x3d5965f8bdd5d4d7U, 0x3dcc7d5dbdd89f67U, 0x3dad2a143cec715aU,
  0xbd895d983dce3677U, 0x3cccbdf23cd73d39U, 0xbdde861b3d930642U, 0x3e1a44973c0bea1dU,
  0xbc8b2c5c3ce6c191U, 0xbba457a03df978a7U, 0xbd9a956a3e2d43aaU, 0x3d975ba9bcfe1bf7U,
  0xbcf11b933d96b225U, 0x3d88432bbc8d18f8U, 0x3de29d733e1870f0U, 0x3d42b9ce3e2cb0cdU,
  0x3d1cc85b3da196d6U, 0xbd19dcc4bdbcc057U, 0xbb07a8493d055e4aU, 0xbdf1e8abbd8606baU,
  0x3d8f0405bc19528cU, 0xbc2beadb3e17c830U, 0xbd5eb098bdfe5f68U, 0x3d81f1583d914ef2U,
  0x3dc4a216be0b8879U, 0x3dc31f7a3d4e2adcU, 0x3c9ccfd2bd6f2180U, 0x3ddf9a9e3b3ced36U,
  0x3c224e233dcd34a8U, 0x3dbcba90bd5fc8b2U, 0x3dcaf71b3dda976bU, 0x3debb6fc3d90d0f4U,
  0x3d9eb36fbc9cacefU, 0x3de22467bce03381U, 0xbdb972a43ddd8acdU, 0xbd591e1f3d574b92U,
  0xbda463ca3ddbb26bU, 0x3d31f0ffbda96aceU, 0x3b8fee133dbfd2deU, 0x3cd332a9be1c7fc4U,
  0xbdc1a1673c746c77U, 0x3e3773c9bdc29a2aU, 0x3df0cd0f3d7241dcU, 0xbe1729353d65ad9bU,
  0x3dd503103badabe4U, 0xbdfd5fbf3dfcf484U, 0xbdf3a14cbddf3742U, 0xbe1f9e013d802079U,
  0x3d8fe20abcade4d9U, 0xbdd8d43d3cdf0adaU, 0x3cdad03fbd9b0b72U, 0xbd9791833d8b1681U,
  0xbd88b6873cec8fe3U, 0x3d813ffabd8e41d8U, 0x3d67785d3df392b6U, 0xbd98a4a3bb91a225U,
  0x3decc3a7bbdd8f0fU, 0xbd59e44e3d9298a0U, 0x3dceb6973c45a0bcU, 0x3db4b252b96574a1U,
  0xbe0761debcc5d603U, 0xbdb80eb0bdb8240fU, 0x3d9f0986bd5eaaf9U, 0x3d65a8483d9b04a2U,
  0x3d14920c3d8ec1d5U, 0xbc665224bc9fcfc9U, 0x3dfe2acb3cd639a6U, 0xbdd114e5bde51b79U,
  0xbdbcba78bd8cf831U, 0x3e2c325ebd959beaU, 0xbe375f51bdcdc8bcU, 0x3d50b83fbdab2fafU,
  0xbd543c14bc7ee28aU, 0x3d5b31c53d85c28cU, 0xbd300bf03ce24273U, 0x3dc3d5a53d9785c1U,
  0x3e0483ea3c5e9d88U, 0x3dfe2d9fbe014728U, 0x3c5993763db49a6fU, 0x3cb37f393cd5f1a0U,
  0x3e1bb4ae3be808a9U, 0x3cfc1f77bc64ebc3U, 0x3cb59c563decf0e1U, 0x3c8db2f2bd22431cU,
  0xbe3ce35ebd69d4c9U, 0xbdb0308c3dc57524U, 0x3e0d86daba1db727U, 0x3d88937fbddd7250U,
  0x3e1b2c693d633c0fU, 0xbc510dd4bb2e34eeU, 0x3d2eb486bc590a85U, 0x3b321a863e25a74aU,
  0x3dce2907bc8f37e9U, 0xbaf7fd45be2fe637U, 0xbd60c4f53d8e8d7bU, 0x3e3c764e3e1a2944U,
  0x3dbb93fe3df5dd2aU, 0x3da99a2fbdae400cU, 0xbd40a757bdc39a1aU, 0x3d155c6d3d9bc749U,
  0xbd9e76c23d9fe910U, 0xbd4967f63d1a229eU, 0xbd8b5523bd7ff3faU, 0xbd54fe0e3cf03554U,
  0xbcb9d8b2bc984d6aU, 0xbcbbfdc4bce0df9eU, 0x3e1be7cb3e0c144eU, 0xbae5d3533db8536cU,
  0xbdbb1f7b3da7a375U, 0xbe024b40bdb91b48U, 0xbdcdd9e8be27600fU, 0xbe639c97bd8fd091U,
  0x3e225b53bdaa74beU, 0x3ba1f153bd8aec3aU, 0x3daed9ebbd96de8dU, 0x3e1c98cf3e050086U,
  0xbcac97373da48c2dU, 0xbc96a965be72a8f5U, 0xbe2198abbd2e68acU, 0x3da006c8bd800b8dU,
  0x3c1634d1bd8d2d98U, 0xbda162cfbba12e0dU, 0xbd0456cc3e08cbcaU, 0x3dc287a63da530b8U,
  0xbc324605bdf02c25U, 0xbe2b1ff4bd9fbdebU, 0x3c8999fabd95a812U, 0xbdad736e3dacc041U,
  0xbdca51a13d7bd4fbU, 0xbe28c57d3d66e6dfU, 0xbda72a5abe3027bdU, 0xbd1d21ff3cf268a0U,
  0xbceea2c43b24150bU, 0x3d9ae3e23c218d04U, 0xbde4cb703dd439fcU, 0x3dfeb309bdff535aU,
  0xbca5c5733d2cfce5U, 0xbdceb76a3dc4b951U, 0xbc76e0783d8a3da7U, 0xbe1845d93c8fd388U,
  0x3dfadb763e18181bU, 0xbd0f535a3c1083efU, 0x3d4380b83c8922bbU, 0x3d6628be3d72cde3U,
  0x3db9b336bdae0820U, 0xbdf41e023c9d51faU, 0x3d85a89e3bd6d756U, 0x3ca65c39bd8339fbU,
  0xbc29aaaebd9d586eU, 0x3caff3cc3d058921U, 0x3cdd4b37bd9c7e71U, 0xbdb0f71cbc3fa5ebU,
  0x3d05e565bd9182ecU, 0xbd89c4e5bc97020dU, 0x3d8fe805bcb536b2U, 0xbddd125fbd249d6cU,
  0xbdac4d1f3dbe778dU, 0x3e5a963cbcb25a21U, 0x3e09e110be03cb8fU, 0xbd25de30be5225bfU,
  0x3c1a942b3e567063U, 0xbd1b7baf3db84434U, 0x3d8fcd343d3ec706U, 0x3c51c7d6bdc1978aU,
  0xbd6275d5bbd0818eU, 0x3e2e8c3cbda0ad3bU, 0x3d61236a3db3133dU, 0x3e19afd6bdbfcd2eU,
  0xbd4418bb3d5cf4e8U, 0xbb9a274f3e146383U, 0x3c6c71c73df74b57U, 0x3dd2af8c3d445d0eU,
  0xbbea6e10bd4439d5U, 0x3d7429ffbded449aU, 0xbd1f031ebd8d00b8U, 0xbc66f1503dde4e46U,
  0x3b7d4e133d085e28U, 0xbbcbdf92be1239adU, 0x3d497347bd6f46e2U, 0xbd8eb655bc9ab230U,
  0x3dc8d7bb3cfd3e6aU, 0x3e1229233da08711U, 0x3de1eff7bdbc82a5U, 0xbd5ed0a13d0a253cU,
  0xbdb5d9163d54ce93U, 0xbe10cb1bbc9e1767U, 0x3dbc18753bd511f1U, 0xbd9dbea7bda494eeU,
  0x3d5618c73d05b9d8U, 0xbe1c6920bcf4dcc6U, 0xbc005c8c3def2534U, 0x3d8581febdb50708U,
  0xbe1fa2e13dc1a0d3U, 0xbd9fc7993c995beeU, 0xbe1ca936bd93d946U, 0xbccd31bd3d89a526U,
  0x3d9c18f7bd949fc8U, 0xbd5c7871bdc5b3e4U, 0xba0e39c5be028f7bU, 0xbdda2dd6bc864b3aU,
  0x3d71390cbdae7ca0U, 0xbd83dd15bd620e39U, 0xbd3d7b63bd5b5ba6U, 0xbdb0bb24bd615976U,
  0xbd8dfac73bb34987U, 0xbe5e0d2f3d9529baU, 0xbde608aa3da5c48bU, 0xbda1e7633db43381U,
  0xbe36fc7cbdd431dfU, 0x3dffe2953d400148U, 0x3c9f690ebd0e301dU, 0xbd9accb93dceffe8U,
  0xbd64218a3d8e4d67U, 0x3c9fa7ee3daa82f3U, 0x3dad57463e2bf23aU, 0xbd275126bdf54850U,
  0x3c9a1b653d81b1e2U, 0x3de8d7e23d18bea5U, 0xbd011c163d5ac962U, 0xbd50967e3e063fe3U,
  0xbd35e168bd928697U, 0x3d89c9083cfea6c0U, 0xbd67b636bdc2e83bU, 0xbd98cc3abd929e11U,
  0x3b03506cbde03342U, 0x3c09fb183d009cf9U, 0x3df7b11ebcb7711fU, 0x3d1bc8dbbd0d6128U,
  0xbdce6c663cc83704U, 0xbd9b99533b158294U, 0xbd0b25d4bd00a141U, 0xbe5332ec3d74d00dU,
  0xbd8b59b2be052567U, 0x3d135dfabc16670bU, 0x3be41ef3be3e80e1U, 0xbc4f7703bc74e9a5U,
  0x3d6bb095bd455254U, 0xbe1e90973d8eb982U, 0x3df1e7c63ccb6228U, 0xbdbcf9853d0440ddU,
  0x3db4375dbe383915U, 0xbcbc3a34bcf40d4aU, 0xbc2f9f823d7a29afU, 0xbd13d437bc3139d4U,
  0x3da33742bd8b597eU, 0xbcd87cea3d43eb93U, 0xbe00b54fbcfada99U, 0x3d3c2c4b3dc33dfcU,
  0xbc3a20acbd875a6aU, 0x3ca532aebd8bd68aU, 0x3c8bde86be0f53daU, 0x3de282d5bd302f1eU,
  0xbd1229b9bd8329c8U, 0x3d4cd1fe3e149476U, 0x3db3e29fbcf531acU, 0x3d26be7e3de51897U,
  0xbd11e736bd297d9aU, 0xbd0d1e423d77df30U, 0xbe2260ddbe21a6b8U, 0xbae6bfc2bc85670aU,
  0xbe27aaa1baffeef9U, 0x3d1d14babc0716d0U, 0x3d605d0e3da88d0eU, 0x3ced55313bbe5e45U,
  0x3e2eeba83cf51c4dU, 0x3d4ecff4bdb2a654U, 0x3d24a986bd68a99dU, 0x3d47c144bcc9dbfdU,
  0x3cbc03ae3d8c8544U, 0xbd6bdbc43db59edeU, 0xbdc52c6b3c5e5a98U, 0x3af63134bdadfd84U,
  0xbd91b2e0bd73fbe3U, 0x3a53b442bdcbba06U, 0x3c0303b13d7234faU, 0x3cf33c103de34c8bU,
  0xbe1e82633d18fd15U, 0xbcbca5dabdecca06U, 0xbc26b6cdbde5347fU, 0xbda9f55bbdf614d9U,
  0xbe55526f3d0a47f3U, 0x3d87290e3dc8b9fcU, 0xbd8c09d43db01942U, 0xbd68f8e3bdb69014U,
  0xbd43704e3b843bdeU, 0x3e0dc626bca4a4deU, 0x3d4f0bde3dc016b9U, 0xbd406f58bd13eea3U,
  0xbe0545fcbdcf3cadU, 0xbe003bc53d9071edU, 0xbdd89b2e3b66cdc5U, 0xbe1d6db63ce3d7c9U,
  0xbdbb07a4bd8eeb16U, 0x3d4aff533dc9b696U, 0xbdbb7e003d11815bU, 0xbcf9e10c3a6820bdU,
  0xbd9ba2583e027b5fU, 0xbd2cc3253cfdac8cU, 0x3da364b8be2a6e40U, 0xbd959d873c984146U,
  0x3c612febbde745caU, 0xba13a1a6bd96069fU, 0x3dd947d4bd9a7883U, 0x3d474a513e08a36cU,
  0xbd2deac2bdaa4412U, 0xbd7a9dae3c8050d5U, 0x3dd13e83bdaaf2e4U, 0x3dd4849bbd65ff35U,
  0xbd9003cfbd2daf22U, 0x3d39267fbe1883efU, 0xbdbb86fc3de70151U, 0xbdb6ac77be1326bfU,
  0x3d7d1adabb58b85fU, 0xbdbbd5b8bd2a6a61U, 0xbe0557453b04231dU, 0x3d5814ddbd8bdea9U,
  0x3d9a8c6c3de41c11U, 0xbdd64775bdb0c448U, 0xbd9190a03d1d60baU, 0x3e1677a7bd29d1dbU,
  0xbda9d2d23d0ae595U, 0x3de108433bb4a3b0U, 0xbd2492853bd425d9U, 0xbdc1f486bd63ba28U,
  0x3d99965e3d5a3d22U, 0x3ddbb28f3cd4304eU, 0xbe29f3233cd948afU, 0xbe35e0773dfbd40aU,
  0xbe39d4d33d4ac0f4U, 0x3df8b9d53dcdf4b0U, 0x3de6a4613c9abfc6U, 0xbd475472bb5fa83fU,
  0x3de2b2183b9fc932U, 0x3df558863d544d68U, 0xbe177908bd11781fU, 0x3c13d9bb3c861736U,
  0xbd878182bbfd2c51U, 0xbd18d77c3db34e53U, 0xbc860e6d3dd99c8cU, 0xbe27e020be269e46U,
  0x3db6890e3d3ced23U, 0x3e11945f3d48624bU, 0xbde1cc0bbd959b04U, 0xbc46810e3d3f28c0U,
  0xbd87cc1fbc88afe7U, 0xbd906d103dac1270U, 0x3ca3d9673c8ef41fU, 0x3cb2a6293d63f296U,
  0xbcbe9ad73dbff38aU, 0x3d6e4d4a3db98a7aU, 0x3da403833dff0351U, 0x3d3ee4923d0c6562U,
  0xbddad5c3bc8aa900U, 0x3d0100a4bd7d5dc4U, 0xbaa1f3a53ddff7c0U, 0xbe098cf6bda0f0b8U,
  0x3e03b2eebda80d72U, 0xbdeb47ee3c26bd56U, 0x3dd3bda43e2005d7U, 0x3d543e4a3e033517U,
  0xbe07a6f53c564863U, 0xbdf085413dfbaea8U, 0x3daaa879bd383ae2U, 0x3d94cce3be314e3dU,
  0xbd9c9550ba948c66U, 0x3e1fafda3caa8b16U, 0xbe0b2eb83c601fa9U, 0x3d3d16583cd6a5e2U,
  0xbd81013d3e05456dU, 0xbe00e3c5bd4a2ea3U, 0x3cb67bcb3ba2979aU, 0xbdb3e9983da73b07U,
  0x3dbd1b333e19a058U, 0x3cbeb1c3bdd6d4cfU, 0x3caf968b3c76882aU, 0x3c0d83983dd2a9c6U,
  0x3d362e5e3df6e669U, 0x3e2d427f3d97f650U, 0xbcf34f5b3e412782U, 0xbd86981fbd80aad8U,
  0xbc9df0923cca5de0U, 0x3d91b10dbc1a46c2U, 0xbd7fdbe7bddad3dbU, 0x3ddb95493d11042aU,
  0x3d9d3286bde5af01U, 0x3decba113c09c9fdU, 0xbb5b9c163d2bff8cU, 0xbdb37809bdd4b577U,
  0x3d8d5eb8bbf825d1U, 0x3da74c8c3c1a8d9cU, 0xbe34a75b3b88effeU, 0x3d2bf868bd9fc8a2U,
  0xbd89e5793e3cb378U, 0x3d81f760bd278bf8U, 0xbc672d3f3e2fc39dU, 0x3dab32a93e01a805U,
  0x3e3ab761bd14d80fU, 0xbdb4d0503dec01d9U, 0x3bc772743d95c389U, 0xbd003a02b9bce8c3U,
  0xbd8cbb1d3dcf1f85U, 0x3e0335153e1d1378U, 0xbd26fe623e5d281bU, 0xbd7df28abdbedb56U,
  0xbd88de7d3d2e7745U, 0xbcb511963dcab6a5U, 0x3cc3f4aebd4660ddU, 0x3d8442d8bd93262fU,
  0x3d717edbbc997e73U, 0x3e088db03ca628adU, 0x3cf17496bd600dc5U, 0x3ddde5fabd553d7eU,
  0xbdaecc96bd69d16bU, 0xbd086b26bd61ce27U, 0xbd8b447cbcac3f17U, 0x3d56e9313d302d68U,
  0xbccffbfcbd52a69eU, 0xbd6ec4343d63c856U, 0xbd51d9093d76e9a0U, 0xbcf5112cbd5a65c1U,
  0x39d5a796bd3005c7U, 0x3dd7a4bbbd89d9f4U, 0xbc8c4f68bda2f7f4U, 0x3e31cc4d3d393f5dU,
  0xba58fa953cea23e6U, 0xbd52d9723cb9fae4U, 0x3dfd9eb83de706a0U, 0x3e15605bbc78a5e7U,
  0xbaacbf313ce3b0e0U, 0xbdedac513d914d26U, 0x3dbbaa363d13b87cU, 0xbdabdb733db4dd35U,
  0x3e62e4f4bc4b5e14U, 0x3dea49d5bdbcf6f3U, 0x3daaec8dbd15e570U, 0x3e1a44953d45707eU,
  0x3da8f286bdaa17faU, 0xbdca1e98bde488ddU, 0x3dc308a3bbb35ddfU, 0x3da75ce73c1c2c9bU,
  0x3dab27c13d2c83d1U, 0x3ddff327bd981d8bU, 0xbdfbc9733e8874daU, 0xbe0a6d943dbe53dbU,
  0x3dbde6603db95077U, 0xbd512e683d324795U, 0xbd26484ebdcac150U, 0xbd5b15e73d3306a1U,
  0xbd8348fc3ddfd1c6U, 0xbe0bd1d5bd3f3eefU, 0x3c1c5b79bdcf45d9U, 0x3dd614363c3eec29U,
  0xbdef0a483d47a1a5U, 0xbe4e56063db38accU, 0x3db02d8a3bc5ac46U, 0x3c4c0ec6bb7ad56bU,
  0x3dcece24be1b9844U, 0xbc88e4713c19d330U, 0xbd8ccd91bdbe144aU, 0xbd8bad8ebdd248c7U,
  0xbda7656b3d8c5530U, 0xbd275e24bd39de76U, 0xbd7d71613cbe64a2U, 0xbc7896a93cce49cbU,
  0xbd9859d6be2c5a33U, 0xbdd50fb6bd7c9abdU, 0xbd31c3dd3e13656aU, 0xbd7f57a3be400893U,
  0x3ddbc604bdab7c94U, 0x3d75cdcfbdb3572fU, 0x3e054cd63dda22ffU, 0x3e2cf8aebcea027bU,
  0xbd1f88edbd822c13U, 0xbd3d80db3dac0fb6U, 0x3c68f8883dc8239cU, 0xbbedc9f7bd96ff10U,
  0x3ce10601bda48c8cU, 0x3d34ff723e12909aU, 0x3d7c43eb3dceaca5U, 0x3e1b130abd65f6d9U,
  0x3e2332553d81e130U, 0x3bfcb05b3dd53005U, 0xbdc42f1dbdb10d12U, 0x3daf3a6fbd84239fU,
  0xbdd05d763de94527U, 0xbe037290bd080d06U, 0xbd2216573d64229cU, 0xbd8970703dea62d8U,
  0x3dc4114fbd9fa789U, 0x3dd525733d3390bcU, 0x3d8b1a933e08a1daU, 0x3c6a26123dc7a388U,
  0xbe238638bcda8714U, 0x3de73ae23c3b679bU, 0x3d073c8e3dcc3e7dU, 0xbbe275303d73aec7U,
  0x3c06a9543e130961U, 0xbe0370c1bdcd5731U, 0x3d9399b43ca37577U, 0x3d0871293d6484a1U,
  0xbba0304b3db0c339U, 0xbd7692d73dd81a48U, 0x3cb048fd3d8e9f60U, 0xbdc3d8ef3cb6bb06U,
  0xbe096aedbe06cc68U, 0xbd02c451bd2a530dU, 0xbe453c81be234302U, 0xbd3826803d003a68U,
  0x3e0abb86bdab13ecU, 0xbc4b6e333db5f2d2U, 0xbdaddce6bd9afdabU, 0xbdc21874bc8956a9U,
  0x3d21aeb3bd93b2afU, 0x3d1d356c3d94d32eU, 0xbdb6fb523d11a68fU, 0xbd5bf58ebdb54dc4U,
  0x3cd8fd3ebc180ce0U, 0xbd0ced39bbd9aaaaU, 0xbe03338ebd67b063U, 0x3e0177c6bd89bfa5U,
  0xbb26daa3bba97163U, 0xbe260b963df6f432U, 0xbda681e3bdd20b7aU, 0xbd995948bd6d64b7U,
  0xbe0728d43cbd3868U, 0xbc4de1a13b7b6612U, 0x3db2742dbde9ae70U, 0xbe0aa32e3dc08c1dU,
  0xbd8d15e8bd1ef074U, 0xbc4abb40be0d06e5U, 0x3dc092623db71a76U, 0xbe1934aa3e078bc3U,
  0x3c033897bdcd7ac7U, 0xbe4aff33bdd0c431U, 0xbe1301cc3d8bd34aU, 0x3b464c0c3e115f0fU,
  0xbddb3608bd978a42U, 0x3d902a733d7866c4U, 0x3bc32208bd5ba184U, 0x3db89bf1bdc1d847U,
  0xbde4bf0fbc5cb208U, 0x3d5655f0bb840caeU, 0xbd8cc5c23db31fdeU, 0x3cd65495bd5ae14eU,
  0x3e349f753d918358U, 0xbde7b1b63dcc0c31U, 0xbd8c47913d149b26U, 0x3db7c5743dcd0fbfU,
  0xbdce461ebe13461bU, 0x3df7766dbe0281beU, 0x3d842754bdf92999U, 0x3e3643cd3e0190ffU,
  0x3de90c9cbd1c347bU, 0x3ccdf4a1bde4c995U, 0xbdc997ccbca8353aU, 0x3d6744583e122916U,
  0x3cc82013bd30ccecU, 0xbd700480bbb7881aU, 0x3d592b27bd8bb134U, 0x3ce407bb3d92d4deU,
  0xbd83a116bce4ff09U, 0x3de9e880bd629981U, 0x3c4e317abc1512ffU, 0x3c9bdfb3be14de01U,
  0xbc259b583d306e0cU, 0xbb85e7afbd97f6cfU, 0xbdff731a3dce062cU, 0x3e290c913cf56561U,
  0x3da7c5fdbdefa835U, 0x3cd7ac5f3e26a950U, 0x3dcb3b8ebd85bfcfU, 0x3e49a9ce3daafdfcU,
  0xbde9aa28bd25018aU, 0xbd929a7c3d8a9456U, 0xbd5164a23e0ac106U, 0xbdb5dcd7bd8c3bdeU,
  0x3de4177fbd856967U, 0x3d3e4d033d8184d1U, 0xbe453380bcffcf2dU, 0xbe16f4b73d67c154U,
  0xbdc3cc5e3d448a31U, 0xbd4836bf3bcbdb2dU, 0x3d91ae1bbc0e7371U, 0x3db8a945bd90fccaU,
  0xbd295c56be29dd73U, 0x3d8e693c3c7f2d3fU, 0x3c791fb43ebe8f12U, 0xbdacc0f5be3534a7U,
  0x3ab06fa73e24ecddU, 0xbe1153e1be05599aU, 0xbc1f82bc3d2ccecfU, 0x3dee24b13b1ba17aU,
  0x3d396830bd5c922fU, 0xbd439bd53e2a9839U, 0x3d35a3043cd6f762U, 0x3db4e5dfbd177c12U,
  0x3bf05fbe3df42b6bU, 0xbd79d3e4bdbbb96fU, 0x3dca0f4cbc0ffb53U, 0xbc8c55813d28dd2aU,
  0x3d89a91bbc86e4ceU, 0xbdada31e3db583deU, 0xbd24e962bdf3de63U, 0xbd84989e3e22c9b5U,
  0x3d9ed2453dae08e7U, 0xbd0cd0dbbce610c9U, 0xbc9a4a72bd53d93fU, 0xbd02c0213d93ac41U,
  0x3dada7dcbdf6bdabU, 0xbd24ddfb3d4dcd0eU, 0x3bdcb3c03e0ea79aU, 0x3d9d4b27bd4382f5U,
  0xbdaf6cd63dca8543U, 0xbe13d658be1f2bb3U, 0xbd18e8973d9a211fU, 0x3dee2c0f3c6531abU,
  0xbc489b13bba5e85eU, 0x3ccc9a613ca4a685U, 0x3cb32fc1bc04d9fdU, 0x3cd3d575bc392a75U,
  0xbe2a948dbd899382U, 0x3d5cdc453d02bcabU, 0xb98584423c726284U, 0xbd9663c53d1150a0U,
  0xbd1611a1be2963c6U, 0xbd82a54b3e036fa8U, 0xbdf4ca42bdf8edf6U, 0xbc62e6eebd8af097U,
  0x3bccc628bdb4d706U, 0xbdb1b8753dc86cb1U, 0xbd864645bdefa7f2U, 0xbc7851a0bdf97eafU,
  0xbd94c3043d090510U, 0xbe01d5973d56793eU, 0x3cac4ab2bbb0d00fU, 0xbdae78963e5c14f3U,
  0x3d3776e83cc9b66aU, 0x3d9660533d814b89U, 0x3d2d2ee73d9a6b92U, 0xbe43ceefbbcce099U,
  0x3e23e05b3cf52d2bU, 0x3d8f5028bde3de90U, 0x3dcb01d13dd7a73aU, 0x3da5e8fa3c5ab5baU,
  0xbb1c7e52bdc2d5daU, 0xbd25fe1bbcf843deU, 0xbe015d253d13b1c5U, 0xbdfbcad3bd9d0b47U,
  0xbe29f0d73d58d23eU, 0x3d7890453e1370e7U, 0xbd88e2973dc791a4U, 0x3c5169c2be21bb3aU,
  0x3c2e6e663d378927U, 0x3dd9b866bc9a73b0U, 0x3c386896bccc3a8fU, 0xbd533560bbbb1c70U,
  0x3d23f8983df593ecU, 0xbd9c6570baa77798U, 0xbdc66e6dbe3870c7U, 0xbde335e53e0ab5e8U,
  0x3c8024573bddb7d8U, 0x3df769f03d67b904U, 0x3d9dc9223dbc5f90U, 0xbd9ea6603db99d4fU,
  0x3e00c5613dd48e81U, 0x3d4ad172bdcbcbf9U, 0x3da03840bcc79da9U, 0x3d5c94103d1d6d39U,
  0x3c82eb433d26c458U, 0xbda7405f3d967c98U, 0x3d3c924abe07ea6fU, 0x3d8be436bc95cfc2U,
  0x3c48eaefbe0f0c85U, 0x3d8a8320bd11bd4aU, 0x3de83dbc3d4b7816U, 0xbdbd20c5bd55c755U,
  0xbdffd0743da38e20U, 0xbe050a833d1c5039U, 0x3db3b294bda18f0aU, 0x3dd864fd3cf0a0b6U,
  0x3dc800a73d412fa0U, 0x3ca317ef3d229860U, 0xbdae92a7be217b5cU, 0xbb9479173da3846cU,
  0x3d715e553d96b6d9U, 0xbd80d57cbc8b5ad8U, 0x3e231a193cf39a82U, 0x3dff723b3c9383a2U,
  0xbcac0f09bda9ea2fU, 0x3d476dc5bcdd1739U, 0x3d51a5f03e21b561U, 0xbe2dd4f83cf9fd27U,
  0xbba4c440bdda0f1fU, 0x3d11c85d3d88eb1eU, 0x3d79cc9ebd8a3a01U, 0xbd1e6f8c3dba60a1U,
  0xbd83dea53d8bb35bU, 0x3d1c56f1bd0a9897U, 0x3e47c07a3c9d593eU, 0xbde4ae94bcd2960dU,
  0xbd28b81e3d046b46U, 0xbde20feebd8c4292U, 0x3c86cbd93dc5616fU, 0xbd18d5a1bd8214a7U,
  0xbb0ffde4bdd7aae4U, 0x3db7861d3df1298aU, 0x3e01a3c7bc356363U, 0xbd225255be3b82eaU,
  0x3dcf31373d8bbd22U, 0xbc94996b3c4e5a68U, 0x3ccb38efbd1716dbU, 0xbdfb39b23dc99299U,
  0xbe11abc63d938a3eU, 0xbc3deeec3d67ea03U, 0xbbeed1103b44a1d7U, 0xbcc9fa043d01741eU,
  0x3d9732bcbda2c57aU, 0xbe240626bdf273dcU, 0xbdcdc000be06d22dU, 0x3cab39e63dec1906U,
  0xbde1f354bc48c9fcU, 0x3d59872f3d945e64U, 0xbe21eea5bdef69c6U, 0xbda92eb4bbee3c89U,
  0xbe15dfe93dcfbf58U, 0x3d024875bda52889U, 0x3c9fdb053cfd37d8U, 0x3e1c56a4bd946aa2U,
  0x3d50fcaebcbe3182U, 0xbdccf775bc7dfe7aU, 0x3dfdbbb73e0c48f2U, 0x3d868803bd397044U,
  0xbd09cd66bd1938c2U, 0x3da1286dbcc47208U, 0xbda09d253da07decU, 0xbd9539bcbd660681U,
  0xbd377a3cbd772d9bU, 0xbdd1ca70bcf3315fU, 0xbcb5174abdce2f60U, 0x3ce01827bdb41cedU,
  0xbd8bdb05bd3a229bU, 0xbcdae34c3c771a37U, 0x3e174cd4bc31cf50U, 0xbdb671cfbdc5227dU,
  0x3de10663bb220723U, 0x3dd40a9dbba4f55aU, 0xbe4f7172be12e9daU, 0xbe0dfe773de398c8U,
  0x3e344e12bd043c78U, 0xbd341c84be097be3U, 0xbdb67f3f3cfc6f10U, 0x3d6808153d06a2f0U,
  0x3d4aa24cbd7a4f79U, 0x3cc0caebbc9cfeacU, 0x3dc3f54a3ce83738U, 0x3e0290af3d1d5edeU,
  0xbe0fa35c3cea6c47U, 0x3ce36154bd117c39U, 0xbd4576ea3b9c1c32U, 0x3d9261c03c5de15cU,
  0x3d18d05dbc8b2f6cU, 0xbd931550bdbdca99U, 0x3d89bcb4bce3d984U, 0xbdcaf261bd2b0a0eU,
  0x3d39a1dc3c241a46U, 0x3cc56af0bc342ae1U, 0x3d305f033c211954U, 0xbdc959f13cac4f65U,
  0xbdd24ea83e037530U, 0x3c13ff853d3b0457U, 0xbda6ede5bd7730a3U, 0xbd5e9734bdaa2147U,
  0x3d9c93a5bcea0aa3U, 0x3d911fcdbd31a824U, 0xbd9b578c3db27e27U, 0x3b6b019abda9e91eU,
  0xbd55e043bc2190e4U, 0xbdee4cdf3d435ba0U, 0xbddfcebbbc60ba1bU, 0xbca2afc53e0f5efcU,
  0x3cbd9873be11d6b8U, 0xbd617c69bde0f0f4U, 0xbe208e1e3d0312a1U, 0x3dba65ffbd9ed89dU,
  0xbdc605783d26ff51U, 0x3e21fe53bd60bfd2U, 0xbd66b009bdbada00U, 0xbd8913673c5188e1U,
  0xbd642f54be1913d6U, 0x3d145cfc3d5f38e0U, 0xbe0b8065bd1e0e08U, 0x3c8e7df73ce188b8U,
  0xbda7b34c3cb3179bU, 0xbdabdd65bdf7b920U, 0x3c6117c33d82b2aeU, 0x3ca2d17b3c2037d3U,
  0xbc7ca29cbca24a68U, 0x3e03ee4dbe1516e9U, 0xbd089fb33d4bfa17U, 0xbd82b4483d1bb6f7U,
  0xbe0b98393e073c29U, 0xbcb4e329bda3c6e7U, 0xbdf31825be115cb3U, 0x3d0e91a93db99dacU,
  0xbd9f86c8bd024dc1U, 0xbd7d8239bd01d2a4U, 0xbddae20d3d34abb0U, 0xbe151656bd454870U,
  0xbd4fd0de3cfeacd8U, 0x3e25ae75be097132U, 0x3d3ed6e4bdab9ff1U, 0x3d6502febd948ad7U,
  0x3e025ac93da6b4c1U, 0x3ddb4e29be110599U, 0xbd14abcc3dc5e381U, 0xbd6d009abdec18f9U,
  0xbe0c4c8ebcde2602U, 0x3e110ba4bda36680U, 0x3d29c6ec3de60533U, 0xbc528213bc144b7cU,
  0x3dd8f40cbcfe59fcU, 0x3e3288583ceb84b0U, 0xbd8b909abd2fb1e5U, 0x3daf1da8bd1455e6U,
  0xbdeb3b983e550646U, 0x3cd6e173bd2f1755U, 0x3d27a8a53d972a80U, 0xbdfd8afdbd589b49U,
  0x3c2e61a23c871bc9U, 0x3d9de3b5bdee6041U, 0x3dccfd593b1fd8a1U, 0x3dcb0305bd5cb91eU,
  0xbd83c47f3df93838U, 0x3e2d677cbdf99d76U, 0xbd4a00763d3755aaU, 0xbd007cb43cb0d711U,
  0x3d8e37bebdb7c0cdU, 0x3d95dcb33ce47b53U, 0xbd29fe683e01549eU, 0x3dd565263d7fd3bfU,
  0xbded30933db9be4bU, 0xbcb77fb0bdb1ca63U, 0x3d37170f3dd4f66aU, 0xbd997935bda1c6d6U,
  0x3d6be0a13d971b3fU, 0x3c6c7985bd349febU, 0x3d84e1c9bd550d44U, 0xbd225830bda70798U,
  0xbe1fa73a3b28dccdU, 0x3d96eecdbd591c8dU, 0xbc65d6723d1d7477U, 0xbc0269ec3e216287U,
  0x3e4679753d686cafU, 0x3c4e7a12bdb20e71U, 0xbc6aff5d3de13bf3U, 0xbd85dd123dd1648eU,
  0x3e15b2ac3e054158U, 0x3e0859b6bd3cb58eU, 0xbdbae7c3bcc4dbc0U, 0x3d9e0fd3bdd3a952U,
  0x3e0c0c7a3ddeaebbU, 0xbce5de8e3e279e68U, 0x3deb9921bcd3716bU, 0xbd358cea3dad156fU,
  0xbd124a4f3d07f710U, 0x3dfc0e6dbda79603U, 0x3e43e18bbce488e6U, 0xbd0826dfbd89a743U,
  0xbdae69b83dcec746U, 0x3a894139bbb30f56U, 0xbd84f87abd26821aU, 0x3d910670bda20638U,
  0x3cdc82ce3d3523b9U, 0x3d6cd66a3a91a449U, 0xbd74b439bd54386cU, 0xbdff58443d6dc9c0U,
  0xbd8eea483e02fc42U, 0x3d09526dbd21a856U, 0xbd350665bd9c6609U, 0xbd1544e93b0355b8U,
  0x3dc63416bdce1e5dU, 0x3e6b0a853dc5bcbfU, 0x3dc86ddb3e08123fU, 0x3d02b305bcb43091U,
  0xbc58f583bdcabfb7U, 0xbddc7ae43d755c13U, 0xbbfe2cfbbdbbdbd0U, 0x3db1ffa43dbc7215U,
  0x3d8a7e86bb9f6612U, 0x3c35284f3cbb8e2dU, 0x3c98f7e4bd8095d2U, 0x3c222a08bdd54154U,
  0x3cf43296bcbaeaccU, 0x3d442590bcad1e00U, 0x3ce221913bced397U, 0x3d9f6d5abdbb33b2U,
  0xbd853af7ba11711fU, 0xbde59d90bcdc9e31U, 0xbcb46e28be667d87U, 0xbe1a26883d137712U,
  0xbd86ea3abd94cb93U, 0xbc8ec0863cf1235bU, 0xbdb6654b3d5cafabU, 0xbe02dc5b3d9f2f76U,
  0x3e0013afbdc163e1U, 0x3db0e013bd67dbe9U, 0xbd663ce13d409efbU, 0xbc53bc1b3d43ee42U,
  0x3d3dfa3ebde7e6a5U, 0x3d284586bdd99bc2U, 0x3c59e3ce3df685b8U, 0xbcccad38be166009U,
  0xbd8546e3bcfadc33U, 0xbd10e9e2bdbafa64U, 0x3cbec131bd9b3a42U, 0xbdc8b4d8be166b4aU,
  0x3dc0b66a3d9c296dU, 0x3d6e99de3c62c4aeU, 0x3c48d0f63de0d5d4U, 0xbde4043e3c606bdaU,
  0xbdcf7b15bda87a3aU, 0x3e03e74f3d15a994U, 0xbd30f1ac3d2c1c69U, 0x3d341a2dbce58dd2U,
  0x3d8d743d3d6b7eadU, 0xbc9ed3efbe06f4c1U, 0xbd87c5b0bcd4a51eU, 0x3d059c4b3c6e68bbU,
  0xbc3b2a4ebd9a09d6U, 0xbd7d88e93d84d4d1U, 0x3ce9e5fb3d5fa2c2U, 0x3df28b50bd4b7f84U,
  0xbd6854a2bd8aa669U, 0x3dc6d084bc84831fU, 0xbddcece63de76364U, 0x3dc3d209bb5b6b2bU,
  0xbd2819bd3d7f7aa2U, 0xbe16e414bd875424U, 0x3cf072043dfc77e3U, 0x3d8441493dfe6c7dU,
  0xbcecf6f03daaab43U, 0xbc8e609b3bc6147fU, 0xba937c2e3da8fd1bU, 0x3d80d5d4bbdc76a3U,
  0xbc84f49b3c58bb35U, 0xbde85157bd4014c3U, 0xbd224c8b3e7cf2cfU, 0x3d85a1f4bde890f5U,
  0xbe215720bdb4917aU, 0x3d056d37be2aad21U, 0xbdbba65fbb4e8375U, 0xbdb0d4613db9b981U,
  0xbdf33e90bd9b6681U, 0xbcfd192e3d5dceebU, 0xbb845a53be346978U, 0x3c9b0cefbc0294c8U,
  0xbe4805453d200733U, 0x3dad5eb4bd64c7a5U, 0x3dcef59b3cfd3ab7U, 0xbdbb355bbd9ac550U,
  0x3d9f03903dac4b76U, 0x3d0d7f1a3c8bc21dU, 0x3dd7ed49bd68f625U, 0xbe2dfb18bcff5dfdU,
  0x3e1207863d7ac258U, 0xbd88a30b3d2bba35U, 0x3c9fbaf83a19a4fdU, 0x3d15a25e3df09eebU,
  0x3df46682be721112U, 0x3d525d7c3ccd2771U, 0x3d94661dbd7aae57U, 0x3d87f5833d48de19U,
  0x3c7e2e6bbcbfb607U, 0xbdb6e163bdede530U, 0xbe2353bebda832b9U, 0xbcda1e993d9cfbbfU,
  0xbdd4b0333e1118bfU, 0xbd05f4c83d16acddU, 0xbda3c0913d6bad9dU, 0x3c43ee0a3ceae712U,
  0xbe001dacbd81f37aU, 0x3deec662be01e168U, 0xbd852614bcf5da83U, 0x3da05f283d75985bU,
  0xbddb799cbd233d69U, 0xbe05d572bdf923ebU, 0xbd844acabd305dcbU, 0x3d8168f3bd98df4dU,
  0x3daf4d78bc869470U, 0x3d477012bc37b480U, 0x3d3cd1413d8816e3U, 0xbd6d36a63ccad803U,
  0xbc4e9eca3b8668b5U, 0xbd78e2a6be0773ddU, 0x3cdea763bc2d2ad1U, 0xbb64879dbd49dd67U,
  0x3f22874b3f6bc09aU, 0x3f6c28ab3f5f1d8bU, 0x3fdabf593fcdd607U, 0x3f3e4ea13f9ed5dfU,
  0x3f8207483faf0784U, 0x3f8af16f3fc59f50U, 0x3f588eae3f5d8e0eU, 0x3f5e97a93f807fb3U,
  0xbf8742a2bfa7ff29U, 0xbf80541dbfa00c0aU, 0xc005acc6bfc1a6e6U, 0xbf3aacbcbfa2f2baU,
  0xbf766c25bf882f26U, 0xbf668bbebf421a4bU, 0xbf850363bfaf824eU, 0xbfab2aa3bf5ac022U,
  0xbcbc5fc63e2c2696U, 0xbdf0c83a3e80069aU, 0x3d02a0613c9063ccU, 0xbe816937be0f965aU,
  0x3dd17e34bdab5a1bU, 0xbe6badfb3c54b11cU, 0xbe212b783e88f3c4U, 0x3e7620953c5ad5e2U,
  0x3db80f83bb77ce96U, 0x3dcadc05be68e547U, 0xbdd19232bc05694bU, 0x3ce35175be13e77aU,
  0xbb894607be451e72U, 0xbe49a1743d88fcf9U, 0xbdbb40a93cb843b0U, 0xbe1c6c50bea7064aU,
  0x3d5ce0c13df0b4abU, 0x3e0fcd26be487db0U, 0xbe093410be1374c7U, 0xbe477d97bdc0dc1dU,
  0xbd86f6c1bd839d90U, 0xbbc20facbcdcc5fbU, 0x3e1ea54e3dfe32cdU, 0x3d5620fbbc8e2eddU,
  0xbd818bfa3d96b9baU, 0xbc8996c03d938aeaU, 0x3db9df343ded38c0U, 0x3e103360bd0641caU,
  0x3dd89199bda6def5U, 0xbe150e893d29bca9U, 0xbda77d383e0f2a58U, 0xbdcb57b8bc6792d4U,
  0x3de3882a3e287929U, 0xbd7e49573db1a9acU, 0xbe379985bd1c1f95U, 0xbd836538be0ed5e9U,
  0x3d5f31f8be09e522U, 0x3db753803d103b08U, 0xbe05592f3e28f1bbU, 0x3e25e302bdce8adcU,
  0xbe18e91a3e4e716aU, 0xbe4784b83dd2bbfaU, 0xbe50769b3e16fdb2U, 0xbd83c6a9bdb78e7bU,
  0xbd9a309cbdecc10dU, 0x3cd331bbbd79feabU, 0x3dbcb3c9be294022U, 0xbe69bb623d65793cU,
  0xbddc4894bdc2faebU, 0xbd8b70dd3c961a92U, 0xbe000aaebe28cd7bU, 0xbe36bdbabdc5eadeU,
  0x3e3e77c73e167260U, 0xbdaacf503da14922U, 0x3d821de13e82476bU, 0xbd7c7c1ebdbde170U,
  0x3e26ad7fbc51281cU, 0x3da434813d9f1105U, 0x3dd69bc43e3740e4U, 0x3db694b33d73f136U,
  0xbe0b97a6be1c9252U, 0x3e20fa5f3e08c43fU, 0xbdeb8b6a3d22ba50U, 0xbe2b51d4bd9f8088U,
  0xbdbfb9953e068458U, 0xbc593d8fbbce2599U, 0xbe08787b3de70d4aU, 0x3e1c2f3c3daa6500U,
  0xbcb61df53d3b8609U, 0xbe385f643c74719eU, 0xbe55f41ebdf32af9U, 0xbbca183b3dd1b59cU,
  0x3e053e3ebdf90bb0U, 0x3e1facdbbd592084U, 0xbe1a98363dc7f476U, 0x3d7c15b1bdef796eU,
  0x3e440d173e272623U, 0x3d8874aabe4bf21dU, 0x3da60987bcd3c2eeU, 0x3e461451bba021f1U,
  0x3ddb896e3e3846b1U, 0x3d8fff85be00bb01U, 0xbca259f23dc16bdaU, 0xbc84a2b23c2e3d86U,
  0x3d9100cc3e153290U, 0x3e28e8f8be4c9f8dU, 0xbd0d2dcf3e07e61aU, 0xbd639ebebd501e98U,
  0x3df2e3d73ccd0e2cU, 0x3e0f62f03e386c4cU, 0xbddc6beabdb2268bU, 0xbdde98a73e3664a1U,
  0x3e5549fbbe63b88dU, 0xbdfa40c63d03ae70U, 0x3dfd62d13e4e2842U, 0xbe2386db3c0efa43U,
  0x3dd79ea03dd711e5U, 0xbd3845c43e60e131U, 0x3c43f2a4be388e06U, 0xbc2a2de6be3ac388U,
  0xbe75bf573da43954U, 0xbd5230f23e873c8dU, 0xbe854d89bdc813dbU, 0x3e6a2b87be345a24U,
  0xbda570b13db583b8U, 0x3d05cdd5bd3ea68bU, 0xbdd30db23d1a5c6bU, 0x3dcfb63bbe0c2059U,
  0x3cf7e28bbce870d0U, 0x3cc634d03d86e365U, 0xbcf024ac3e7315edU, 0xbd13bf2f3dd99c66U,
  0x3e4425f03e745656U, 0xbd542a22be2eb5aaU, 0xbc33c14f3e0f5d0dU, 0xbdb6d477bd61c4a0U,
  0x3d9c255dbc880a40U, 0xbe3a9754bdddb63eU, 0xbe14c6c8bcedc75aU, 0x3e3d7990bd244670U,
  0x3d5f71efbd138c6aU, 0xbc8f2dc23dbca7f4U, 0xbe4e410f3d063f68U, 0x3d694d17bd121cc9U,
  0xbc20ba9f3d12f610U, 0x3dfa1c463bb0f422U, 0x3dfda752bda7691fU, 0x3dff56f23d2ff006U,
  0xbd70d837bce07db5U, 0xba783bfdbdd58e0fU, 0xbe09d93dbe0f24f3U, 0xbd9b89fe3e83ba8cU,
  0xbe5d3b39bd4437c1U, 0xbd3c2db73d2251dcU, 0x3e3dc29ebe50df36U, 0x3d60806d3d191d8cU,
  0x3e28d2413e35f731U, 0x3cadd7dcbe086b0aU, 0x3db594513dcaad28U, 0x3e5af81a3daecad0U,
  0xbe400cc0bcc8600eU, 0xbe08204d3d7a7509U, 0xbd15bda73db03996U, 0xbe173d1c3d9535efU,
  0x3da6f372bdfd64c3U, 0x3e0ebb653e2fcbf8U, 0xbe10af12bd45838eU, 0x3e32cf1bbc1992caU,
  0xbe302d303ce8a821U, 0x3d2d737c3ccc2db8U, 0xbd01a3e5be436756U, 0xbe086f813d65aae8U,
  0xbd032293bd92bfc4U, 0x3bb1b4b93e417cf1U, 0x3e361a43bdc7c70aU, 0xbe08d2363e4d711aU,
  0xbe091a933e6903ecU, 0x3d12d42d3d6e6465U, 0x3ce4b2ee3e37e38dU, 0xbdfba0373c65eb7bU,
  0xbe205b943e3656beU, 0xbd51dfcdbe0ca1d6U, 0x3cb32d603da8295eU, 0x3e5e3bd1bdbdd9a3U,
  0x3e3bd76c3df8ac7cU, 0x3ded3a143d824097U, 0xbe1ace743de462e7U, 0xbdbe55533e6eb3c9U,
  0xbe17347fbdcdad49U, 0x3dd1c8e0bde70d25U, 0x3dcb86b5be212477U, 0xbd903707bd1fc2d1U,
  0xbd89b2873d6a8d29U, 0x3e8c5fc8bcd0a5b5U, 0xbd0bd6333dc8bd70U, 0x3d63c8873e04a06bU,
  0x3e45ce02bb143ce9U, 0x3e374e6cbd6b3a59U, 0x3d4d88c7be0866f6U, 0xbc9932323d16b483U,
  0x3e635dd03e2978c3U, 0xbe08ee9abe0c50e4U, 0xbc45cb4e3e090023U, 0x3ded115ebdddf34eU,
  0xbdf9d40b3da339e6U, 0x3e0825be3de315c8U, 0x3cdfe8233e0a5262U, 0x3e38af4d3e4bd4b1U,
  0x3e10293a3b5d890aU, 0x3e2e64893dea8eafU, 0xbe0493333e0911feU, 0xbe0d94633e4410cdU,
  0xbdb413453df9fe76U, 0x3e27fb793e1ec0caU, 0x3da0be0bbd9b6d17U, 0x3da91b413da67225U,
  0x3d0e701b3d3273f0U, 0xbde47f173d17f615U, 0xbd97b85fbe8f3839U, 0xbdc63c10bd9e9230U,
  0xbe680fdf3e347ba6U, 0x3dfa12843e662ea3U, 0x3dec41fcbe406df6U, 0x3e4db70d3d103b4fU,
  0xbc55121fbdb0beb4U, 0x3e5522a93bc84597U, 0x3dfc9d1dbd976bffU, 0xbd7c65773d18650dU,
  0x3e061bb6bdb572b1U, 0x3d8c34a3bd427965U, 0x3d2e77c83e46c58fU, 0x3e1d8de93d272b90U,
  0x3da34f7a3e5826a6U, 0xbe1ea95f3e0a944bU, 0xbc9b38c7bddac9c5U, 0xbe56d56d3e07bb26U,
  0x3e32b6ebbd7ecc3eU, 0xbe1ea9b03e21cef2U, 0x3e44c77d3cec57fcU, 0x3e068864be2c7b3fU,
  0x3d8ad08e3d1bfdd4U, 0x3e388013bce80ac5U, 0x3e26830fbe2eb00dU, 0xbe2d1a1a3bf94795U,
  0x3d920ae63d9ee5ceU, 0xbde12548bb95b291U, 0xbddf837f3e1799efU, 0x3dfbd88bbe3ab7e6U,
  0x3db54fcb3d084bdaU, 0xbd41f65d3e01c12eU, 0xbdfb9ab6bac155c6U, 0x3cc7fafcbdfb06f0U,
  0xbc5a22db3e12d010U, 0xbc6481f4bdf8f5aeU, 0xbdd751e43e2b32a9U, 0xbdc95bd93e2585e5U,
  0x3e2513753da3d384U, 0x3be64b3d3d15f9c6U, 0xbc844816bd453995U, 0x3e497bbd3d7f5befU,
  0x3cc4c196be08c36cU, 0xbe097bdbbb50d5e5U, 0xbe0b93e6be285688U, 0xbb8a75b33e3edcadU,
  0xbc4605793e37c2c2U, 0x3de34a2ebe1f1adbU, 0x3e064432be1cd225U, 0xbe6e98f73df20c5cU,
  0x3dd85487bd761863U, 0xbdb169b23d87146aU, 0x3d5a6132bde72928U, 0xbc1f4ae33d48f866U,
  0xbdcb05ae3db397efU, 0x3e45d03b3d21f899U, 0x3da0ab8fbe075753U, 0x3da416c23d976b5fU,
  0x3d87d14c3d596fa0U, 0xbe12c0cabe20b56bU, 0xbe00de4a3cdc9f91U, 0x3c8cd760bdcc7a14U,
  0x3dc71300be19a28cU, 0x3e01f117bcf861f0U, 0xbd8c30e93d3bb82bU, 0xbbb1596fbd9ab52eU,
  0x3e0464383e352e26U, 0xbe214330bdf6d859U, 0x3d98ad36bde12625U, 0x3d3c2a54be249bf2U,
  0xbc47e5ce3db55babU, 0xbdf5dc743e28b9f1U, 0xbe095369bda3669bU, 0x3e237184bd12878dU,
  0xbdc93614bdcaf400U, 0xbd1ec2e0bd9240c1U, 0xbdcc6bc2be4c5522U, 0xbd8f270d3db5caacU,
  0xbd1db772be154b1cU, 0xbddc7d803d279eeeU, 0xbd999a093da6e0a9U, 0xbcd997fb3deaec6dU,
  0x3d74be7fbe13f8faU, 0xbd132d4b3e284bc0U, 0x3e24594f3e1a4beeU, 0x3e0a8964bcec47d1U,
  0xbda35dfdbd71f9eeU, 0xbd6522cb3e4b3531U, 0xbe251afb3cd51ca7U, 0xbcf9ddbdbe2045afU,
  0xbdbe4477bcc92251U, 0xbd8a07e1bd861cf5U, 0xbe2d7c40be206c2fU, 0xbdb79afd3db8d5bdU,
  0xbe20b91c3e083220U, 0xbd161dff3e868ec9U, 0xbe92e4cc3df0c14cU, 0x3dc295cabd840fb6U,
  0xbdb213d53e64224cU, 0x3d883361be2c0644U, 0xbd99915abdacefbfU, 0xbe22568bbe32edb3U,
  0xbd4ec1bbbe3f7e33U, 0xbe6e69a23b6ecc0aU, 0x3d7a428dbd2e2799U, 0xbc587c36be20b5dfU,
  0x3d7e014b3db52f10U, 0x3dde491d3e210097U, 0xbd2151433dd709fbU, 0xbdf2f330be27c0e6U,
  0xbe2ad921be3e1e4aU, 0xbe5299e9bdaecc49U, 0xbcf48a033d84f748U, 0x3e1aa32a3d473013U,
  0x3d9ca6eb3e854b8cU, 0xbde1a827be02ef29U, 0x3d468957bcdaf56eU, 0x3e0d17993d8e0a41U,
  0xbd1d55e03de5a208U, 0xbe29b5b03d531a61U, 0xbbfcc2123e3d674cU, 0xbd7af8a2bdbd8e6aU,
  0x3daf2803bd05305eU, 0xbc884a4c3e4f9868U, 0x3cf4dc0d3e16b717U, 0xbdb7a3ac3d82509aU,
  0xbcc3c55bbe158138U, 0x3de7f6163de7d9c2U, 0xbe2551fbbd89c91dU, 0xbe0ea1fe3e5be840U,
  0xbe18ee6e3df524d0U, 0xbe5df5d73ded3768U, 0xbdc65f58bc50e61bU, 0x3ca555c8bd86737aU,
  0xbe13921e3e629cf9U, 0xbd93f9b63e11a05aU, 0xbde1cdffbe3c0507U, 0x3e06f488bdf0bf96U,
  0xbe43865ebd8dccb1U, 0xbb3ec2a53d907e6fU, 0xbc7b8d14bc7f6036U, 0x3e32c006bc030b71U,
  0xbc6516a93e5833b0U, 0xbdae9dd9be0ecf1dU, 0x3e2925a83c2775feU, 0x3d9bc2643e21bab1U,
  0xbddbf7e53c9764edU, 0xbd822ffa3e1c5f10U, 0x3e361fe33e270cfbU, 0xbd801b81be21c4dcU,
  0xbe2cd767bd42557fU, 0x3df357683e4de6e8U, 0x3d73f4323e332125U, 0x3e10cfcc3dcf2765U,
  0x3e56ce04bdaa822fU, 0x3b3f19463de7b1e6U, 0x3dbeadadbe1d402eU, 0x3dec4d133d2cd2d9U,
  0x3d0796243e05ee98U, 0x3c1cecc33cc20856U, 0x3e1f576f3e21a7a6U, 0x3bbfb3b63e2fc7c8U,
  0xbc9bdbcabd2e88c0U, 0x3d05b4793e3b6d16U, 0xbe0971c13ddcf38fU, 0xbe260eeabe1fb9a0U,
  0x3e18b2cfbcf27613U, 0x3ccb8b033cca38d9U, 0xbcd67e443e4c3092U, 0xbe23956c3dd1713aU,
  0x3e0d0beb3e0dc01aU, 0xbdc9ec9d3cf0cf9cU, 0xbe0df76bbe150d00U, 0xbde07a913e02b309U,
  0xbd8f36a13d2e71bfU, 0xbd8d53f4bad4fd51U, 0xbd995ffcbdb4426fU, 0xbe1930a0bc829f72U,
  0xbd169a253d5168f5U, 0x3d6fa4b63db60a8fU, 0x3e1be66b3dee59f2U, 0xbb67d1aa3e2978c9U,
  0xbdde0026bd93141aU, 0x3e34a21c3dc1cce8U, 0xbd2cd855bceeda3aU, 0x3e51fc34bd99c0bdU,
  0x3e09cb76be237e04U, 0xbccf214b3b5655a1U, 0xbe10376f3dc28984U, 0xbdf85c613d5fcbacU,
  0x3e4f152e3da90752U, 0xbea76a1a3da99732U, 0xbe778c213cd794caU, 0x3e47d602be7b6303U,
  0x3dcf9ca53e1f1a2cU, 0x3e196fb93e1499faU, 0x3cf5e57d3e0038a0U, 0xbe8e3d10bca7c68cU,
  0xbe1eada0be3907fbU, 0xbd9871903dbc7455U, 0xbc735919bde65385U, 0xbded72d63db27fd0U,
  0x3de79131bd4a2d29U, 0xbd0531e53d619588U, 0x3a4a9ca8bd2f98a2U, 0x3d1c37763e603c0dU,
  0x3dd66649bd33a20eU, 0xbe8b60843e7101deU, 0x3d633f8f3d119f3fU, 0xbdde5286bcb146ecU,
  0x3e59c4323ddbe217U, 0x3e23180c3d4aa9aeU, 0xbca6dfd1bd8ecf7aU, 0xbdc293c5bd9d2fe4U,
  0xbdc4c731bbacb05eU, 0x3dfbecb03e449307U, 0x3ddce156bc7c295aU, 0x3dc1afa9bc6829afU,
  0x3df9b4303e53a746U, 0x3e046c46be62407cU, 0x3e3760dc3e68fb10U, 0x3d44a6b7be05b37eU,
  0x3d88d0753c1e1e2fU, 0xbbdbfa813d66e7c9U, 0xbd81ebd03e11b67bU, 0x3def74e2be3e95deU,
  0xbe2fa0453dfd6016U, 0x3e2a78ebbe3be094U, 0xbdf98115be27156aU, 0x3d14610cbe33eccfU,
  0xbe6262babe248e0dU, 0xbdea5aa6be6dd6acU, 0x3e3190a0bde0d7f9U, 0x3d9ae6b83e2afc1cU,
  0xbda038eebe54bc1fU, 0x3ce2413bbe063518U, 0x3db74df8be1cd088U, 0x3bc6051cbda674f0U,
  0xbda0931f3d9b0c60U, 0x3ddb3053be30de1dU, 0x3e7ae36bbe1725e3U, 0xbdedeae03c5c0c6fU,
  0x3d7677a6bd1138f0U, 0x3c633e17bd958b7eU, 0x3e1652bcbe47f22eU, 0x3cf720483c227bd8U,
  0x3e0e3f73bce706cfU, 0x3dbc7ca4be074a5eU, 0x3da816e53e358a22U, 0x3e6af466be1f714bU,
  0xbe79003fbe2c4fa6U, 0x3df9f913bda85273U, 0x3e41309bbdbf9877U, 0xbe0a3e08bd249561U,
  0xbcdc1a473d94005cU, 0xbe058a74be335a4dU, 0xbde531b93e0a9180U, 0xbdbd4d793da9db85U,
  0x3c267654be3c159fU, 0x3dab9dbe3d59b7c8U, 0x3dcc0967be680166U, 0xbd9f120bbc444731U,
  0x3bd84a323caf4818U, 0x3db715a0be49da9bU, 0x3cf9385ebe253143U, 0xbdabec55be4355b4U,
  0xbe0dd4a63d8ec7f7U, 0xbbe14fe03ca6cab2U, 0x3e511f4cbd6001d0U, 0x3d0dcd1d3dadb043U,
  0xbc09369ebdea6de0U, 0x3ced1f1a3d498982U, 0x3db9258ebdeb820aU, 0xbe2860bb3db16339U,
  0xbdd2096ebe3c7653U, 0xbdd3c4333e0d1f86U, 0x3d8ee027be04ca4fU, 0x3d34a6503e181040U,
  0xbd6fd4ecbe4122faU, 0x3d7890123ddca219U, 0x3dc8ec03bd903008U, 0xbd8f8b93bdadb44bU,
  0xbce6084cbc83dfd5U, 0x3b95eb813dce507eU, 0xbda8eacc3e44d6b8U, 0xbd6f1e543e468afaU,
  0x3e233d8a3dc87e5aU, 0xbe6a1f573d9798ffU, 0x3c264e71bcbb6841U, 0x3e1f7e8b3dc5f345U,
  0xbd7f4f503e1f6f58U, 0x3e2fa1fbbdb9909fU, 0xbc1e8843bc80cf47U, 0xbd404449be11490cU,
  0xbdb439fbbdbd6946U, 0xbdf04fa73e18f088U, 0xbdcaf9c63e071aaeU, 0x3dc8dda9bd721a16U,
  0xbdbee3373e0e7cdeU, 0x3e3eede8bdc800f3U, 0x3d99a0c33e0ca208U, 0xbe113accbdc39825U,
  0x3d5ef0b33bba4ec6U, 0xbd9f05143e437d8eU, 0x3e5ade7abe23d0b8U, 0x3db4b62b3d4976eeU,
  0xbe3d738e3d2f4145U, 0xbdf08f63be4aae66U, 0x3df61f28bac92ff9U, 0x3e349025be33c842U,
  0x3dd602e23d4ab468U, 0xbdebb75bbdabaa6dU, 0x3da993b63d9ddd10U, 0x3e057a81be303c7dU,
  0x3e56643e3df8ef29U, 0xbdb4f42f3d480d48U, 0x3e4b17323d88ac2fU, 0xbcd685953dc1eaf7U,
  0xbda5b2aabdc0f99aU, 0x3ba76cd93e4b3c8fU, 0xbddc1c193da1d5f1U, 0x3e672d1b3dc62c52U,
  0xbe029c8e3e501638U, 0x3d039a223e09f182U, 0x3d8b9fef3dd0296eU, 0xbd114ca53db781abU,
  0x3e0d3b70bcab59daU, 0x3c00b357bcc39bd8U, 0x3d911911be402a07U, 0xbc4ef8ec3d589bb3U,
  0xbe17fc42be657a76U, 0xbe482ea0bdf399d2U, 0xbd9c9e783e098963U, 0xbd64c742bce6b1c0U,
  0x3db6ea73bca08d9cU, 0x3d2aa2c13e4cd64fU, 0xbe9fa9853dda6b91U, 0x3e891a4fbde6b50dU,
  0x3e33f4103de42d71U, 0xbd4f77ce3c8df5aeU, 0x3e24c1e6bd8294caU, 0x3de32d35bd0e0813U,
  0xbdfaec1abe3e5627U, 0xbe350f82be219d90U, 0xbc47ad8e3e208ab8U, 0xbe32276cbe4e9ba9U,
  0x3de5a7d23e3f81a9U, 0xbd29e1663dba56a9U, 0xbe11224bbce54dc7U, 0xbc5c6dd43d9c5741U,
  0x3de998d83e033d38U, 0xbdbbb2a0bdd2d08cU, 0x3e07c0fb3c418f98U, 0xbcb85485be4d1ca7U,
  0x3e6ee0493d8c84dcU, 0x3c31f7043c0a5afcU, 0xbe23dfecbd9b0ba1U, 0x3c02d14b3d832e6dU,
  0xbc16ff94bdfc57a0U, 0xbe7f3e22be0ce872U, 0xbdb0a27c3da0a5eaU, 0xbe2ca4a2bd4b90faU,
  0xbd870dfbbde93ea1U, 0xbd8fc383bc810a0eU, 0xbd30ee4a3e681d9aU, 0x3e0997653e25cb9bU,
  0x3dfbdf5d3e049cd1U, 0xbd91e45d3e44306fU, 0x3db391a43e517914U, 0x3e828baabdabf991U,
  0xbae7f7013d965077U, 0x3dd02bcdbd8041fbU, 0xbe24656c3d6eeb85U, 0x3d3551b6be0af765U,
  0xbdc98f573e4eea99U, 0xbe282258bd90187cU, 0x3e5e14753d660cb4U, 0x3d8ab5b3be1e94bdU,
  0x3dfacdcd3e1e91eeU, 0xbc4462abbdcb9eb3U, 0x3df748813e54d47eU, 0xbda7178d3e630be6U,
  0x3d4f8763bdc70ddfU, 0xbcf9e5ec3e0c1f8cU, 0x3e11bf68bde55086U, 0xbe859d85bd855ac2U,
  0x3e089f1d3e0d18b4U, 0x3b8c509cbda163bdU, 0x3e2f5923be401e90U, 0xbde04edebe34b643U,
  0x3d11debc3e35a982U, 0x3e3a36f4bda0ef98U, 0xbdbe9523bd7d3f42U, 0xbe0619a73e7fe4f1U,
  0xbdc0d112bc4bcc13U, 0xbe002b3fbd277595U, 0xbe099ed7bbbe9bb8U, 0x3cec9531bde34e93U,
  0x3e0922c43e230c4bU, 0x37dbdafe3d858056U, 0x3e5785c03c966a7fU, 0xbe404b673cf75c87U,
  0xbdd4c388be5cdb8aU, 0xbd92b33e3e5aa63dU, 0x3e1aed493d47ab2cU, 0xbe21370b3e0c7d96U,
  0xbccda2ecbe06dadeU, 0xbd3de5f7be37b496U, 0xbd6be434be4abdeeU, 0x3c7853e6be44b364U,
  0xbdd58ef1bbd1e4c9U, 0xbcf7fc493bfdd793U, 0x3e184e773d6982c0U, 0x3e415ce8be1291bcU,
  0x3dce1c233d80b43bU, 0x3c03c28f3dee0296U, 0x3e2570cabdcd2069U, 0x3e23069dbd4d699cU,
  0x3e2430653e21a700U, 0x3e0651003e38f58fU, 0xbe39ef2ebd68bf7aU, 0x3e0e1683bd0f1dbbU,
  0xbd4343eebd555cbaU, 0x3df086893e2dc444U, 0x3e40a7043c4ce6a1U, 0xbd9d5fb33d937f0bU,
  0xbe0a26df3e245f45U, 0xbe121cab3d72500fU, 0xbda7e2763dbb61adU, 0x3d218ea3bd0b1925U,
  0xbd88f39bbd89ea5aU, 0x3e27f21abe306523U, 0xbda74f7dbc62bc85U, 0xbcf6cd123d7e5cbfU,
  0xbe2d89d4bdbc8750U, 0xbd0ac8f6bdf45c5fU, 0xbe1b18863cac0f99U, 0xbd110cd7bc72f3acU,
  0xbde0da85be2fc327U, 0xbd1c0ffb3da896bbU, 0xbe1d73a1be4ac35dU, 0x3e0cfb4a3ddd196dU,
  0xbe40139dbe0b5f79U, 0x3e327bc7bd5101daU, 0xbd9c858b3e3a9d89U, 0xbce295a1bd606e7eU,
  0x3c0fb3e73dc3d327U, 0xbb39c55bbd39f408U, 0x3d6eba233d31e530U, 0xbe407e3a3d0bfec0U,
  0xbcd4fcae3d83fa39U, 0xbe27eba6bc8970daU, 0x3e04da09be287d6eU, 0x3e0755e93e064691U,
  0x3b0768dabcd5d766U, 0x3df3aeb73b7bc527U, 0x3c28c7343d915133U, 0x3b5839a43d937ebfU,
  0x3db5ea5a3de218fdU, 0xbe3d0d433e1e0bbfU, 0x3beb1c68bdce7880U, 0xbc69e8acbda7cf93U,
  0x3e0bba57bd8be1dfU, 0x3e3913723b06987bU, 0x3e0cb56abce31193U, 0x3ced91203e1387d2U,
  0xbe245be5be4f65a7U, 0xbc296ba83d1e5719U, 0xbdc3bc0a3e29db67U, 0x3d0f63253dc511f3U,
  0xbe2cbe2abc5af403U, 0xbda468a1be00ecbbU, 0x3d95d167bd7dde37U, 0xbe30645bbd99fbc5U,
  0xbdeb20eabdb4ca88U, 0xbdd9cd3fbe592d93U, 0x3e2e319cbe22edebU, 0x3df7dd92bb56fb83U,
  0x3e3984ddbd8d273aU, 0x3e377231bd557f16U, 0x3b8ca5973bc34b9aU, 0x3d160837bde441c0U,
  0xbc15aa1b3decb28cU, 0xbd36240e3e1456a3U, 0x3e14f8cb3dad51a6U, 0x3ceef2053d4d7e66U,
  0x3d982e36be20e727U, 0xbddc0b51bced660eU, 0x3df665b3be29c6f5U, 0xbe20dc7abe0c946dU,
  0x3c34ae253e0d9516U, 0xbd3529d4be455a10U, 0x3e0d4ee4bd696a4aU, 0xbdac34f0bd98bb97U,
  0x3d867bc3bd0ccb2bU, 0x3d246b52be0292a6U, 0xbe0e4cd5be6f8d9bU, 0x3e3d1af4bdc9d2a3U,
  0xbe4e6cfebe829e8bU, 0xbe7c6da8bd5f8ba9U, 0x3e853650bd03dba2U, 0xbb8d927a3e58cec5U,
  0x3d8fd0e4bdd4b735U, 0xbdf6a07dbdd8d4c6U, 0xbdc2759c3d4d8001U, 0xbd3121443da15267U,
  0xbe639578be52e000U, 0x3d745f43bdc3d086U, 0x3e22dac2be3374c5U, 0x3dce0f7d3e1d99cbU,
  0x3db78361bca96edeU, 0xbd355de9be2cf72dU, 0x3e293a703e529583U, 0xbe151f4f3dd369f4U,
  0xbe30a2443bdf5977U, 0xbdf7569ebbab7b50U, 0xbc2d432c3b93e5e8U, 0xbdc0007dbde7529bU,
  0xba14a0563c9539b0U, 0x3db2130d3dc05650U, 0x3e02bd813cc32ff3U, 0x3e43055f3becbfcdU,
  0x3d87ae333e387f03U, 0x3dc16d2c3e009c3cU, 0xbd5922d73d8f202eU, 0xbb9f55833defe164U,
  0x3db7daf23daa0171U, 0x3d622a2dbe725d98U, 0x3d93689ebd956de1U, 0xbeb6b942bdfd8336U,
  0xbd23fad9bd8fe583U, 0xbe38ce373e4e7b01U, 0xbe12ef823cea140cU, 0xbca3ce70bd1e9904U,
  0xbe588d3d3d8158c3U, 0x3e26d2b4bda69284U, 0x3cf30b66be192aeaU, 0x3b6e96cd3c5d1158U,
  0x3e3907ee3da61f48U, 0x3ce95d093dcee8cbU, 0xbd07d0763d720b56U, 0xbd7eb1dbbd8ab792U,
  0x3dc03599bdc9328aU, 0x3df839293e2d41a4U, 0x3e218e45be67b14dU, 0x3dffa2d7bc94db8cU,
  0x3e0c50bebcd2a6baU, 0xbe5f7703bd10b3bcU, 0xbe1d9e463e60c8beU, 0x3ce36f9bbc00dc82U,
  0x3dd2f77c3d075f03U, 0x3a8602b6bd0b3866U, 0x3ce16a5c3d62b30eU, 0xbdd042bb3e1ac730U,
  0xbe12941c3e0893baU, 0xbd85e8d93dde89a4U, 0xbd20f8f2bc769212U, 0xbde83dd9bd1facb5U,
  0xbdfb5dce3e1a064aU, 0xbd3c2d723e057fd3U, 0x3ddd7ff03df73538U, 0xbdfcefa73e497190U,
  0xbc4909a43da56c86U, 0xbc462db7bb98f2d7U, 0xbc879c533df644b5U, 0xbc95917ebe17dc47U,
  0x3e0e2e033dc55f1bU, 0xbb0607c43da4a966U, 0xbe0021c43dfaf0dcU, 0xbe309309bd159842U,
  0xbd4d7016bd1286f2U, 0xbdb0d49b3e2701faU, 0x3df63513be343d6cU, 0xbddc0b25bcf3c68dU,
  0x3dfcba6d3d98aba9U, 0xbdbff6ff3dc6ac33U, 0xbe03b5783d9adc4eU, 0xbcf879e5be89b357U,
  0x3d8eb94abd4ff4ecU, 0x3d8325ab3db69886U, 0x3de91b03bd1e8a13U, 0xbdd8d594bdf7f033U,
  0xbe22ff5ebe0ab7cfU, 0x3d416e063dbca95bU, 0x3d897f523e20e171U, 0xbe08df52bdcee35dU,
  0x3e194c4cba001014U, 0xbe2dff6abd03fe22U, 0x3e111a6fbe2df243U, 0x3d1bd9243d94f891U,
  0xbd96fbb43daf06e3U, 0xbd3ecccc3e9c3b60U, 0xbca7684c3dabc242U, 0x3cc88ae73d4f7949U,
  0xbe12d41bbd686097U, 0x3dcba2fabe2cc6dcU, 0x3cff31d03d454474U, 0xbcca8d5d3e16d8caU,
  0xbc8332de3d0dffb8U, 0xbe308ba63e3b1de5U, 0x3cfea54c3e4d9087U, 0xbcc092d3bde454b9U,
  0xbe1bcc413df95fe2U, 0xbc8cb5aebc79dc23U, 0xbd96d688bde2a294U, 0xbc9e5fa1be3c0790U,
  0xbe5919dd3e2c2f44U, 0xbe06e7833db0c7fcU, 0xbd98b1a03e57c930U, 0x3e23e8c33dda8684U,
  0x3c1643943e3b5324U, 0xbe3099aa3dc9bd61U, 0xbde474023e61143aU, 0xbe4f349c3d1ecd64U,
  0x3e4f6c5e3d822ebfU, 0x3e10f777bd8e9990U, 0x3d4e5ba6bdf42fbcU, 0xbe5aa7b23d199124U,
  0x3dce60a1be052909U, 0xbd8ea05ebe2499b2U, 0x3e35bfca3e383cedU, 0x3e18303b3ca6c24aU,
  0x3dcfc118bc443696U, 0x3c9a9744be0dc458U, 0x3dbfe7f03de69660U, 0xbe76c25dbc434f8dU,
  0x3dc2f074bb8c4b7bU, 0x3d00fc213e69a1bfU, 0xbe0f625dbe1c8023U, 0xbd4624723c06f676U,
  0xbd4b5541bdd6c160U, 0x3d9dd1a1bcc5ecdeU, 0x3e3558753ddb895aU, 0x3b6e0940bd928cc1U,
  0x3e1d05d23bb41d34U, 0xbe24d28d3e8ac2e7U, 0xbe3ef9c53e5c336bU, 0xbdf75569bda0dfb1U,
  0x3c5dcb31be20afb8U, 0xbd5b7012be31bf17U, 0x3e07f3863bb24a52U, 0x3d66a12b3d31de80U,
  0x3df46f293d2e9625U, 0xbe0cbd55bdcfee59U, 0x3e6905ec3db96430U, 0x3d989ba6bde2497dU,
  0x3e1a38403e6160d1U, 0x3e217407bd11d247U, 0x3e2b8652be250200U, 0xbe836f8a3e429885U,
  0xbe2a3585be81e76fU, 0x3d840b173d10c77fU, 0xbc9f8f9e3db10f89U, 0xbe6dada13d795615U,
  0xbe19ad6cbda638b8U, 0xbe4e7ce6bdfa789bU, 0xbdac000abb8de50eU, 0x3d9648133c2ef2efU,
  0x3db6aac13da6066dU, 0x3dbd11ec3e2a6f0cU, 0xbe035deb3dc81af8U, 0xbdf723513dbfa413U,
  0xbdf6f7613da7b985U, 0x3de44866be149aa4U, 0x3e47658f3dec1d03U, 0xbd38304c3e0780b2U,
  0xbe1ddd353e08d6d0U, 0xbdeb0268bd3207a8U, 0x3e0dd15c3d97fa24U, 0xbda404eabb7cb377U,
  0x3e23a034be4c3215U, 0xbe1de128be535dccU, 0x3e8b94203def43d0U, 0x3d41be2cbd25b816U,
  0x3ddb2b22bddd0fbcU, 0xbe26bd78bdcf0780U, 0x3d154e8d3dfb840bU, 0x3da7e2e9bd6b6660U,
  0x3cdb058f3e1d8572U, 0xbd719c7cbdd5800aU, 0xbe011bb5bdede044U, 0x3d6085983e851650U,
  0xbd2aa71e3e02c7a6U, 0x3d9ffcd93e4a0fe5U, 0x3e3e59fe3e2c7accU, 0x3e7b44143e1dc439U,
  0x3e0863203e03f5d9U, 0xbe08bc33be14216fU, 0xbe25ffbb3e015431U, 0x3e023a513d2e6592U,
  0xbd11acfb3da93ec5U, 0x3e06460f3dee5cf8U, 0x3e653fbdbd9d68cbU, 0xbc876de53bfe7f74U,
  0x3da4e0593d4817f4U, 0xbe0886ebbe29ed4cU, 0x3c75eed6be10e1b7U, 0xbc81ec763e25a9cdU,
  0x3ddc9e10bd33966bU, 0xbde45971be145217U, 0x3e6565553d73a078U, 0xbdbc35923e02e311U,
  0xbdd16d283dc2294fU, 0xbdaf71fbbe8849fdU, 0xbe0ca9c3be1de3bcU, 0xbe37de953e38abf9U,
  0xbe208df5bdefe1dbU, 0x3dab08973e328b24U, 0x3c86ed4cbdcd823cU, 0x3d944e07be1b609dU,
  0xbdaf0c29bdce4f88U, 0xbe1e7a723e422c97U, 0x3e15047dbd94f695U, 0xbc0d958c3da75a51U,
  0xbe2a7bff3dc2ffb5U, 0xbe3664b33ddedbbcU, 0x3da1707cbe6e0394U, 0x3e959bb03dc665caU,
  0xbe496dd7be307cbbU, 0xbdb652f8bce0b27bU, 0xbdcd127abe59d38bU, 0xbe5828d1bc682310U,
  0xbde99f0ebdcf072cU, 0xbd5e4e31bcc16d49U, 0xbddf83dc3de9320aU, 0x3e57298ebd3b0c94U,
  0x3dd3b510bd7416eeU, 0xbe12bae4be0dd202U, 0xbd29f2e7bd81230cU, 0xbdf75d693d8ac113U,
  0x3dba49b8bdca5f2fU, 0xbe86c866bd03e2faU, 0xbd58cc2cbe2d3e5fU, 0xbe03d212baeeeb91U,
  0x3d3a8774bd11443cU, 0x3e1d49c8bdea7539U, 0x3e399459bd5cf883U, 0xbc4bf43a3e12f950U,
  0x3c35b6403dfc80beU, 0xbd8dea813d8dfa65U, 0x3e345af6bdfd178cU, 0x3e1157a43e3e863bU,
  0xbda664debde626d8U, 0xbdae211abe42a9bcU, 0xbd39136b3d12a4bbU, 0xbe303339be4c5a64U,
  0xbe5ebfe4be76ff02U, 0xbdc0a0613cb3d04dU, 0x3e311fd03d353566U, 0xbd0841e53dc90210U,
  0xbdfa8790bd89d474U, 0x3dd9c96cbe2a9970U, 0xbdbf4ec4bd015a99U, 0xbd59f42abb4065c6U,
  0xbb230ed03da1c7a7U, 0xbe231fb1bdd53f74U, 0x3d2abdb3be18998dU, 0x3d81e46f3dec2040U,
  0xbb8546603cf858a8U, 0x3d987b123e366388U, 0x3d61e557bd58b60fU, 0xbd73a5e13e3bb409U,
  0xbd0df4e0bba9fbc4U, 0xbe4c25d9be0abf70U, 0x3bc21736bde88f68U, 0x3d528624be480200U,
  0x3e2ce1b33dbdec31U, 0x3d58779f3dded1e3U, 0xbdc37c473e26d1e3U, 0x3d80f3cebd62b131U,
  0x3d52f44cbe35de11U, 0xbe373733be399cadU, 0x3d831a1e3e086e1bU, 0xbd49ffd23dfc20aaU,
  0xbdb142f23d8b1444U, 0xbdc2aaca3df6d577U, 0xbdee0833bdfed75fU, 0x3d977db0bd192e38U,
  0x3c9ab343bd2c32d6U, 0x3d67d0fd3e350298U, 0x3cfb470dbe4d974bU, 0xbd82f5e8be1f1d8dU,
  0xb82a855c3dee1c78U, 0xbbf555053d6853a9U, 0x3ddc94a33df7ab87U, 0xbe32ea8d3cbdfc96U,
  0x3e283e09be4b6405U, 0x3e0acad33ce747b4U, 0x3e08f4493dd32762U, 0x3d5c70eb3de9a82cU,
  0x3d9f36dc3e4025c5U, 0xbe3074683dbfb7deU, 0xbdee304d3e2c9d7eU, 0xbe1f03f23ca3325eU,
  0xbc3db6a4be4c032fU, 0x3e06dfd9bdff1cd7U, 0x3d6107763cc6bcb7U, 0xbd92f270bd535523U,
  0x3e42e4e03e563d65U, 0xbd155b9c3ca12350U, 0x3d4bdc503dff54fcU, 0x3d7fad113d8e48daU,
  0xbd80ce67be2fbc92U, 0xbda9cfd53ca028bbU, 0x3d1f9f003e383f84U, 0xbd38124c3d67c8ffU,
  0xbe2f6015bdd512caU, 0xbdd0dd4b3e2d62deU, 0xbd8c73743ddbea3bU, 0xbe31e0e6be0583d6U,
  0xbdb0dc92be1d3a32U, 0xbdadbad4bd3e6732U, 0xbc638880bd4d0ab9U, 0xbd4e35bfbd1696baU,
  0x3d95a481bde4c841U, 0xbe5d30b4bdca5b8fU, 0xbc61102d3e1b4eddU, 0x3e1e4947be4fbfadU,
  0xbe1938d6bc38cdb9U, 0xbd320ebcbdbd20eeU, 0x3de9274e3e35e8dfU, 0x3de842513dd7905aU,
  0x3e690538b9ff9101U, 0xbe1aec7bbcc22c11U, 0xbe3ff1063e30022bU, 0xbde877cfbcd2ebdeU,
  0x3e16d3b2bdacffd3U, 0xbe0cb5473da83c92U, 0x3dbef770bd956818U, 0xbe6f73693d3d3539U,
  0x3e2791d93c32e67bU, 0x3d5bd8b1bdbb8cd3U, 0x3ddd8dd3bd76d1a7U, 0xbc4f8eaf3dd06b76U,
  0x3d3fcc9f3e0d1c8eU, 0xbda01f583e50ce00U, 0xbdc08a2ebe7150baU, 0xbd75bf06bcf56604U,
  0x3e3484cbbc381695U, 0x3da710f5bdf89711U, 0x3d5a05a23d3a5cebU, 0x3cd0b3e0bdbbf9d5U,
  0xbe335ab03db991a9U, 0xbd772b343e648f98U, 0xbdc36cee3e195a00U, 0x3c48a32ebcd4c45aU,
  0xbbb005853e7e1577U, 0xbe3d62093c5bb27fU, 0xbe8f350cbdb94ba2U, 0xbc204ec13d2368ebU,
  0x3e1b75ff3d5297bcU, 0xbe509f93bdc2840fU, 0xbd4e8fba3e85f042U, 0xbe186c0c3e0d1c71U,
  0x3e0c4abd3e87ba5aU, 0x3db0be46be50c54bU, 0x3d89c8733e4ce84bU, 0xbdbc64543d6834a8U,
  0xbcb4bc233daf3154U, 0x3daf419dbd66e274U, 0x3d41d87c3e2de47dU, 0xbdf3b4693d803b00U,
  0xbd72cf763e3b7172U, 0xbdaa0a5f3dea35b6U, 0xbd858b4c3d808845U, 0xbd895f993de430eeU,
  0xbd8f6ab43e2092a4U, 0xbc8e5b1dbd388932U, 0xbd91640d3e22bacbU, 0xbe4f029c3e44558dU,
  0x3d3930fe3c9bc110U, 0xbe3b0f7fbd5506e6U, 0xbe2a420abdedf9ccU, 0x3d2e2f553dfe6112U,
  0x3dfe2f7ebc9c07ecU, 0x3d557788be3431b0U, 0x3d2d91173dcc4cc2U, 0xbe30b29cbe18be88U,
  0x3e57a889be1f796fU, 0xbe4f9346bda8f129U, 0xbd95ef353cfcce97U, 0x3e0fee6abdb3b7c6U,
  0x3e292ab53d11bcbaU, 0xbe1b006fbe65cdc2U, 0xbd24b4bbbdea558cU, 0x3e4a2a8f3c130a54U,
  0x3e3896323e328e9eU, 0xbe2532683d69ecd0U, 0x3e4a628f3dc8bd46U, 0x3e190387bd851b07U,
  0x3e2dd96ebd898072U, 0x3e07bdd1bdb0a6d3U, 0x3df1f536bd5e3187U, 0xbe277679bc1f8713U,
  0x3e44b0aa3d3eb9b3U, 0x3e4797fb3d727b4eU, 0x3e532cc03e16af29U, 0xbdb10750be12ce66U,
  0x3e40546abd860f17U, 0xbe70c551bda70924U, 0x3d67bdd0bbe0f37bU, 0x3dadda85bd776cb3U,
  0xbe4e6714be44c068U, 0x3d396d883e3dde74U, 0xbdc110edbe2d0e60U, 0x3e3de775be2a2232U,
  0xbdc3e6c7be1434d9U, 0x3e25081c3de61dabU, 0x3d63126bbe5a55d1U, 0x3bd248ac3def8bdbU,
  0x3dcfeca9bd37ab81U, 0xbddd7facbe6efae0U, 0xbd8132dd3e0823b0U, 0xbe3f6cb13e5777b8U,
  0x3c956a4fbce8e54dU, 0x3e15e5423da4b2f3U, 0xbd6c7b2d3db39e4aU, 0x3e17cfa7be5451c7U,
  0x3e2ac2fd3e516cc7U, 0xbe1c3d383e385e4cU, 0xbe3d81873e17e8c0U, 0xbd8ed9b1bc6458c3U,
  0xbe8279f9be0abfc9U, 0xbe6bbd933e44aff2U, 0xbc15104ebe1a2525U, 0x3c7bf62e3df25409U,
  0xbd38f102bda22ffaU, 0x3d850112be468e52U, 0x3e14bb0e3d57b5d0U, 0xbd2069653de38831U,
  0x3de84d693c2bf42fU, 0xbe293eb9bdd4f18eU, 0x3d7acb493dc93cd6U, 0xbc9e12833d1109beU,
  0xbdb37384bda55726U, 0xbe00af02be7fa311U, 0x3e6bcb903e2e9a0bU, 0x3e0132113d2b3cc3U,
  0x3d0f82dabe8394acU, 0x3d352444bdb7bafbU, 0x3e508cf33d5e6bfbU, 0x3d876fa8bd5bc580U,
  0xbdc62f0ebd5abdc1U, 0x3e641aa7be8676aaU, 0x3d8c18cdbe2351c1U, 0xbdf12d92be15ff85U,
  0xbd987acfbe444e9cU, 0xbd838358be38541eU, 0x3e2aa8903d1f6552U, 0x3cfed15d3d5b4b27U,
  0xbe17916a3d1b988dU, 0x3bc1c713bd37bd1eU, 0x3e0e238d3e03a866U, 0x3e504f47be4595aaU,
  0x3e39555ebe899bf0U, 0xbdea8710bd5dedbdU, 0xbd8f0c5ebda2e024U, 0xbe4ee3d1bd937659U,
  0x3d93acd13e0a4757U, 0x3cd87016bd0b0cccU, 0x3d02659fbd96fe1aU, 0x3d2c923a3d3662e7U,
  0xbdf5bce9be2185ceU, 0xbd0b525bbe1be079U, 0xbdac32a0bd7ce878U, 0xbdb23db8bd1613f7U,
  0x3e2a9c103d807cefU, 0x3d1586debd131ea5U, 0xbd67ec4b3d643c9aU, 0x3dab5a71bd94d453U,
  0x3cb89e9c3db092ecU, 0xbe345596be19011eU, 0xbe57dce3bde974edU, 0x3dcb33503df963acU,
  0x3e39257cbde930b6U, 0xbcf53d40bdeaf9e9U, 0xbe0f597f3e541810U, 0x3cb33598be58639fU,
  0x3e26d9cebdc227c9U, 0xbd7c4d573db669a7U, 0xbe22ff843c3fd499U, 0x3c807b063dcf7681U,
  0x3e6ae54f3e163243U, 0xbd9b53e9be13fbbdU, 0xbdb9a86cbe163fddU, 0x3d9d042bbc9321caU,
  0x3e94d720bd964142U, 0xbbc49b82bd12e536U, 0xbe4fc43c3d506cdbU, 0x3d66eacebe0679dbU,
  0x3e06b20e3dd2bd85U, 0xbe54ae1fbd3e6343U, 0xbd66cd0d3d9115a7U, 0xbe26d874be1fe8d4U,
  0xbd4908d0bd83d4efU, 0x3ddc79ee3bc184f1U, 0xbd09d1b0bd12b825U, 0xbe08d5273c566783U,
  0x3d168d98be234a1dU, 0xbe165f12be1560d6U, 0x3bbb15e53dd5122eU, 0x3c7fab0bbde7b7a1U,
  0xbdec6b8f3d4c361fU, 0xbe13a5b0be37e4f4U, 0x3e580da03dd6c3c4U, 0x3ca04a573d32cdb7U,
  0x3e52fdf53cc385adU, 0xbe32f0893e680be0U, 0xbe734a8dbdf42ce8U, 0xbdbd7c2b3da95e1bU,
  0xbe0e2ed43c49e74aU, 0x3e06d8aabe661529U, 0xbd7973edbc92049bU, 0x3c525aad3bc68cc6U,
  0x3dead329bd3190c9U, 0xbde9c304bd7cd40cU, 0xbcecce24bcf46219U, 0x3df3b9b8bd9a128fU,
  0xbe1600a4bd323288U, 0x3dc8ef203d4f3b16U, 0xbd6bec323c865018U, 0x3ca862a13e220a0cU,
  0xbde22f2b3e1f4dadU, 0xbd83275e3e284edaU, 0x3dc1eec63cec54ceU, 0x3df47babbe2674b8U,
  0x3e21ae193e0970c6U, 0xbe1d36243e18178dU, 0xbdf4ffac3d914db0U, 0xbe17182dbd9ce3e4U,
  0xbe07b5afbde0fd72U, 0x3dad4a17be03dd38U, 0x3e1824b23be0435bU, 0x3dd19bccbd068884U,
  0xbe208a6f3da5afcdU, 0x3dc62884be466941U, 0xbd9f5b6e3e414ed2U, 0x3d3b94573e5c4dc2U,
  0xbdbc05203def0ceaU, 0x3d761b40be55ee93U, 0x3dac56793e47b65bU, 0x3e51b161bd40763bU,
  0xbd212b963d8667b6U, 0x3d37bdfabe0ace5dU, 0x3d6acbb93db51943U, 0x3e4530673d886b7bU,
  0x3de49efb3de137a8U, 0x3e33deff3e2ee268U, 0xbdd2fc5b3e6eefacU, 0x3db9a2bcbda8d1ffU,
  0x3d2ff32d3e45e2b1U, 0x3d8c448cbcc57e65U, 0xbe0b8f503e4e064fU, 0xbd3f947aba8c8dc3U,
  0x3dbf1d303dbf12f6U, 0x3e212acf3e360ab6U, 0xbd92e2383da45cbfU, 0x3bd8dafabdfe5a97U,
  0xbe049eac3cfbea78U, 0x3d97a9df3db5e312U, 0x3db52bf6be037b80U, 0x3cb229a3be79cf70U,
  0x3e3332ce3e19ad3fU, 0xbcc161a63e503a1aU, 0xbe3ccecb3e3c911dU, 0x3d958219be3dd7d1U,
  0xbe5676aa3c5dba4eU, 0x3e66c68b3a3ee1fdU, 0xbd10f2a8be0d1f60U, 0xbe5b9df0be78d0b0U,
  0xbda2a58b3dd0be56U, 0x3e58e5bf3dd40a17U, 0xbe81ec5a3d9e9733U, 0xbd76c5b23dd40f57U,
  0x3db85a39bdc7d92dU, 0x3e33368fbbc4f4aaU, 0x3d12228bbd5c163cU, 0xbd66c4df3c79640eU,
  0xbd67ea013d99fd7cU, 0x3e765131bde550c7U, 0x3e4920513e2d576bU, 0x3d7f2625be3b8882U,
  0x3e223970be19abbfU, 0x3e20bd123e80b868U, 0x3dfd89183b232b27U, 0x3b1a25dc3dab6288U,
  0xbe1dea0ebe1c8eafU, 0x3e288dabbdc8788fU, 0x3d5cde0e3c8ddc06U, 0xbe14e2f33c74b092U,
  0x3e0ed3a33d55b2ebU, 0x3cede8aa3d339aabU, 0x3e39ed7f3e461297U, 0x3e06db783e579e81U,
  0x3dfd3756be3e468dU, 0x3da7cc6d3d84dd19U, 0x3e0bc588bded633dU, 0x3de661973dd5c460U,
  0xbdfbe6aebcb3a596U, 0xbe0098673da22c11U, 0x3cfd6afa3c6df860U, 0xbe06a85dbe2094a8U,
  0xbd0a1f50bc2ba35fU, 0xbe307b70bcbbfe85U, 0xbdae63353e33c4a2U, 0x3d9898e4be5198b5U,
  0xbdd4e5fb3e088db1U, 0xbe263b363d145315U, 0xbd188bd0be18ebccU, 0xbe1ae2623e06ecf0U,
  0x3e468d373c9e00e6U, 0xbda6bf543df4bedbU, 0xbdda4e01bd931b97U, 0xbd846625be7225d8U,
  0xbe0398453e4c9c06U, 0xbdff8ee0bde97826U, 0x3d887fce3d7c0edbU, 0xbd019f8dbe19de8aU,
  0x3cc5cbeb3e7cc1a7U, 0xbd2c5d213e77c606U, 0xbe3e2a98bcf8c42cU, 0xbd856031bd3f3e3cU,
  0x3d11c3d9bcc08d82U, 0x3d2a65113d88d7dbU, 0x3e2db457bd9f8334U, 0x3c81b9b7be0ecf0dU,
  0xbd725ea73e53bc0cU, 0x3da6f5dd3ded25cdU, 0xbbd6db52bdbbfec2U, 0x3d88d1053c28160bU,
  0x3d6e792dbd65ab10U, 0xbe6cb1563e084d7eU, 0x3d4cbfc23d57d913U, 0xbd9fdf7e3c6def33U,
  0xbe5347933d45e80eU, 0xbe4701fdbd6cf0f2U, 0xbe5ecc183c7a393cU, 0x3e49b9f5bdb0359bU,
  0xbe34899cbdae9325U, 0x3e140c563cbcbf99U, 0x3d8d92e33d4c0de6U, 0x3bf87d8c3dd085dcU,
  0xbc3271ff3e1a6609U, 0x3e3023323be1873eU, 0xbdbd975c3dab7f78U, 0x3e28e76dbe4f7141U,
  0xbe1627fcbd7b0242U, 0xbdadd8b5be2c2f81U, 0x3d9ce5a4be4034e4U, 0xbda92f08bd72af34U,
  0x3cdd57f13cfa6ac7U, 0x3dbaf38dbd66d65aU, 0x3ced50e93c1ded0cU, 0xbdc224623e5949ecU,
  0xbcc0cea93d26f73fU, 0x3d5afad43da4eac0U, 0x3e06a558bd384461U, 0x3dacd9123d245fd8U,
  0xbe35ecdb3cd34de5U, 0xbd3c7d713e07f782U, 0xbe05a5ebbe2973f8U, 0xbd04d1df3c838513U,
  0xbe61e14bbdfe4709U, 0xbe786637be13aefcU, 0x3da087bbbdb3ce91U, 0xbc40798b3d149c47U,
  0xbd7337a9bdfe24f7U, 0xbdbb2001bd942434U, 0x3d3804743daad8ebU, 0xbcd644b3bc84a9fdU,
  0x3ba0f402be45354bU, 0x3d37459cbc979bb6U, 0xbd9528bfbd31ff4aU, 0x3d21f4403d9644ddU,
  0xbcb3446cbdf1364fU, 0x3e30a7e1bde9c04aU, 0x3d0a8b453d839e4dU, 0x3d8fa79c3cae28bfU,
  0x3e283273bdc7d967U, 0x3b3618a53de7ad3fU, 0x3e11cc32be1ce9e2U, 0x3e0f0c2fbdfea9adU,
  0x3bdc8c5d3d863367U, 0x3e4003fbbe47c8cbU, 0x3de6a5743e21e148U, 0xbe32b8353db9368cU,
  0xbb0a6e55be4829bfU, 0xbd42ec8ebdee5475U, 0x3ddc7fafbe128f91U, 0xbe2430ef3e24d75fU,
  0x3d4419b9bd83296dU, 0xbbc26ef3bdce60efU, 0xbe4278223dc8742fU, 0xbe049ef7be411971U,
  0xbd4dc4f7be1d162aU, 0x3d2c45b63e22c776U, 0xbe30cba53dcb78f5U, 0xbe276dc73d1b9a56U,
  0x3e3430c93e48fffbU, 0x3d81d1d4bdf9f472U, 0xbe8bbe743d2bd3ddU, 0x3b8b1db7be36fe36U,
  0x3e355413be7400a0U, 0xbe00636a3d9f6ab8U, 0x3d6a703d3db41ef2U, 0xbd997015bde240f2U,
  0x3da17bf5bdb42f35U, 0xbddea8bfbe123c6bU, 0xbceb11c3bd7d403eU, 0x3e00db88be7e8334U,
  0xbd142e06be16ce0dU, 0xbdf6b075bbff6a41U, 0xbd8a3097bdaecebdU, 0x3d54d8a23de451d9U,
  0x3e262266bd2bdf9cU, 0xbd4df98cbb7964d3U, 0xbd93c95ebdb13dddU, 0x3c9c5a1f3cec148eU,
  0x3e4312c73db08c09U, 0xbe3a55d03d231b35U, 0x3c56abc43caa1e33U, 0x3c11cc2a3db80c82U,
  0x3d3bd2863e199914U, 0x3d88cc473dc7c7cdU, 0xbbb6f8223ce7aa47U, 0x3e1806d8be666c70U,
  0x3e8256f1be37a58eU, 0xbd890895be0c267eU, 0xbe11d0163d1af949U, 0x3e0aaf0cbd9e7a5aU,
  0x3e21d9963e58a38fU, 0xbdf21e173a88667fU, 0xbe54725c3d92bc20U, 0xbe3a28903d5c377cU,
  0xbd93f555bd7b69e6U, 0x3e0f581abce0f827U, 0xbd64d4b8bd9bab98U, 0x3dc19c383e1ef5a0U,
  0x3d90994a3e11e088U, 0xbd0f60bebc7866f9U, 0xbdfa16e83e0ccdfcU, 0x3e4346393e42b099U,
  0x3e811d963bd66e1fU, 0x3d279df3be2fe429U, 0x3dd0c8fcbe4bd47bU, 0xbbb29a4abd8c8880U,
  0x3e08148d3e4cb283U, 0xbe5cbd133dc1f3ccU, 0xbdce631a3e2e6f6bU, 0x3e26a80c3de34116U,
  0x3e81342e3d88e3afU, 0xbe26076ebd1115f0U, 0x3d773a113dfaf7bdU, 0xbe8849f5bdbc2f22U,
  0xbe16cb753b5da730U, 0xbd824198bd8d2bd5U, 0x3d1b07143d9ded45U, 0x3cab2b66be8f4c5eU,
  0xbe346cdfbd780615U, 0xbe3d0e8e3e1c9672U, 0x3dedc3f53e2bd58aU, 0xbd9412af3d9a67e7U,
  0xbe2aef0d3e067232U, 0xbc1df20f3c407e5eU, 0x3d6e2ae7bd8d5af6U, 0x3d50dcbc3e0f232bU,
  0xbe163fe0bccd7d74U, 0xbe4e99763c6a8c98U, 0x3db2cae1be038e95U, 0x3dda30c03d56bdc1U,
  0xbe1aa2743e0cc491U, 0x3daff8383e1324d4U, 0xbe664e7e3d898f07U, 0xbe092d72be02d150U,
  0x3d54f4853dd6ca54U, 0x3dfa5ffc3d7e9180U, 0xbc5542713e178c19U, 0x3e1a9287bd97023dU,
  0xbdaae4393e8d5fa0U, 0xbe2dc0ecbe04c9acU, 0x3c659ba1bd1c360aU, 0xbe3e2e33be4e3fd3U,
  0xbc1a2c7fbe08d778U, 0x3de00cc53e3b3adcU, 0xbe51a7a5bdcf99e3U, 0xbe4036c2bd91339dU,
  0xbc63a8a83bd26aecU, 0xbe06deb73e002f10U, 0xbd8343c9be3ac3dfU, 0x3c5c654bbd6eff16U,
  0x3d6409f7be12124cU, 0xbe5f0153bdb79c3bU, 0xbe82e5173d6790bfU, 0xbe40a3edbc2a2fe0U,
  0xbe25489f3e5703caU, 0xbe9345c53d429607U, 0xbd327d64bd07b53eU, 0x3e1872cfbe785290U,
  0x3e10b23ebe55ae66U, 0x3da77491be1c60dfU, 0x3d65f9fc3cc46ec9U, 0xbe46fd263e25f6e7U,
  0x3e31aaf33df0e820U, 0xbd268ee23d21df27U, 0xbe5025453dc760c1U, 0x3d9b54023c0255d7U,
  0xbdf9031abe3bf476U, 0x3d39a8953cc63c7bU, 0xbdef053d3e113717U, 0xbcad7a63be7905cdU,
  0x3dc37d313e9e35f2U, 0x3d7efe3dbc9a3afdU, 0xbe1057a23e6b5694U, 0xbe052c60be1f5932U,
  0x3d8408b8be5cd58eU, 0xbe4bc27f3e43577fU, 0xbe0ea6d93a8354e3U, 0x3d854e7ebd34539dU,
  0x3d8a4c343b118ceeU, 0x3dac3dbc3dbcee8cU, 0xbe952462be1f252dU, 0xbdb3f6acbd2775fcU,
  0xbd7f155ebe5e6b8bU, 0xbd199673bc01991bU, 0xbe51d883bdb1dce8U, 0xbd07568dbd50357eU,
  0x3df9aa4a3e2729b4U, 0xbe6107603de18f9dU, 0x3d4e910c3df15fcdU, 0x3dc1e8133e2045edU,
  0x3e195ebe3dfef14bU, 0xbe80d4d1bde575c7U, 0x3e2113eebd98c0f5U, 0xbdd9860bbdc8ad7cU,
  0x3e816aaa3da501ccU, 0x3db129f33cba7c69U, 0x3d8fe15bbd18ce1fU, 0xbd86a6ca3e0acd4bU,
  0xbd058eaa3c92f5e1U, 0xbd3ea6c43c8f8c08U, 0xbd6bb2ebbd253b6aU, 0xbd7c6ae23d176e8aU,
  0xbd0edc4e3d0d4a8bU, 0x3c1ba4c33d8e94b5U, 0xbc9d35d8bd0bed5dU, 0xbb290256bc94064eU,
  0xbd4cf0073c44b8c8U, 0xbcedb792bcdbd711U, 0x3c442f79bc92fb15U, 0xbcd8f1d8bcbe0fe6U,
  0xbcf33583bd45dabcU, 0x3c97f749bd230891U, 0xbd1ab962bcc2ece4U, 0xbc146746bb4d0eb2U,
  0x3da7b9e6be75ca2eU, 0x3dc9818f3ead8a8fU, 0xbe80b8ccbbc113b7U, 0xbe5b53be3e029599U,
  0xbde928b03ecd91c7U, 0x3e3c6dde3ed32858U, 0xbccc50763dbaeb2dU, 0x3da330743dc003dcU,
  0xbe45e4b63cb46fd4U, 0xbe41a079bd1bc7b2U, 0xbe230c173d666da8U, 0x3d40c6723d44406dU,
  0x3e1c05303d5a4bedU, 0x3e254c50beb256c3U, 0x3db29f00be7b1d9cU, 0x3e091cd33e8f7c4aU,
  0xbe29c146bebd09aaU, 0x3ea035573e297a0eU, 0x3e88aee23e9f78faU, 0x3e5c35a53c901c89U,
  0x3e1f20cf3e9fd0daU, 0x3dc178093e9b000aU, 0x3e5ec83a3e470635U, 0x3e9ccd933eba56e3U,
  0xbd984951bd81074bU, 0x3da15f6a3e493758U, 0xbe84c287be3f55bcU, 0x3e8ad3eebe59fb36U,
  0xbd3fca64be4ec87dU, 0x3d27ead5be2e4b3fU, 0xbe9823663e9103a9U, 0x3b514ede3e56818eU,
  0xbc967ce63c967ce5U,
};


ai_buffer g_two_three_data_map_activations[AI_TWO_THREE_DATA_ACTIVATIONS_COUNT] = {
  AI_BUFFER_INIT(AI_FLAG_NONE,  AI_BUFFER_FORMAT_U8,
    AI_BUFFER_SHAPE_INIT(AI_SHAPE_BCWH, 4, 1, 6656, 1, 1),
    6656, NULL, NULL),    /* heap_overlay_pool */
  };
ai_buffer g_two_three_data_map_weights[AI_TWO_THREE_DATA_WEIGHTS_COUNT] = {
  AI_BUFFER_INIT(AI_FLAG_NONE,  AI_BUFFER_FORMAT_U8,
    AI_BUFFER_SHAPE_INIT(AI_SHAPE_BCWH, 4, 1, 22856, 1, 1),
    22856, NULL, s_two_three_two_three_weights_array_u64),   /* two_three_weights_array */
  };


/*!
 * @brief Get network activations buffer initialized struct.
 * @ingroup two_three_data
 * @param[in] ptr a pointer to the activations array storage area
 * @return an ai_buffer initialized struct
 */
AI_DEPRECATED
AI_API_ENTRY
ai_buffer ai_two_three_data_activations_buffer_get(const ai_handle ptr)
{
  ai_buffer buf = AI_BUFFER_INIT(
    AI_FLAG_NONE, AI_BUFFER_FORMAT_U8,
    AI_BUFFER_SHAPE_INIT(AI_SHAPE_BCWH, 4, 1, AI_TWO_THREE_DATA_ACTIVATIONS_SIZE, 1, AI_TWO_THREE_DATA_ACTIVATIONS_COUNT),
    AI_TWO_THREE_DATA_ACTIVATIONS_SIZE,
    NULL, ptr);
  return buf;
}

/*!
 * @brief Get network weights buffer initialized struct.
 * @ingroup two_three_data
 * @param[in] ptr a pointer to the weights array storage area
 * @return an ai_buffer initialized struct
 */
AI_DEPRECATED
AI_API_ENTRY
ai_buffer ai_two_three_data_weights_buffer_get(const ai_handle ptr)
{
  ai_buffer buf = AI_BUFFER_INIT(
    AI_FLAG_NONE, AI_BUFFER_FORMAT_U8|AI_BUFFER_FMT_FLAG_CONST,
    AI_BUFFER_SHAPE_INIT(AI_SHAPE_BCWH, 4, 1, AI_TWO_THREE_DATA_WEIGHTS_SIZE, 1, AI_TWO_THREE_DATA_WEIGHTS_COUNT),
    AI_TWO_THREE_DATA_WEIGHTS_SIZE,
    NULL, ptr);
  return buf;
}


/*!
 * @brief Get network weights array pointer as a handle ptr.
 * @ingroup two_three_data
 * @return a ai_handle pointer to the weights array
 */
AI_DEPRECATED
AI_API_ENTRY
ai_handle ai_two_three_data_weights_get(void)
{
  static const ai_u8* const s_two_three_weights_table[1 + 2] = {
    AI_PTR(AI_MAGIC_MARKER),
    AI_PTR(s_two_three_two_three_weights_array_u64),
    AI_PTR(AI_MAGIC_MARKER)
  };

  return AI_HANDLE_PTR(s_two_three_weights_table);

}


/*!
 * @brief Get network params configuration data structure.
 * @ingroup two_three_data
 * @return true if a valid configuration is present, false otherwise
 */
AI_API_ENTRY
ai_bool ai_two_three_data_params_get(ai_network_params* params)
{
  if (!params) return false;
  
  const ai_buffer_array map_activations = 
    AI_BUFFER_ARRAY_OBJ_INIT(AI_FLAG_NONE, AI_TWO_THREE_DATA_ACTIVATIONS_COUNT, g_two_three_data_map_activations);
  
  const ai_buffer_array map_weights = 
    AI_BUFFER_ARRAY_OBJ_INIT(AI_FLAG_NONE, AI_TWO_THREE_DATA_WEIGHTS_COUNT, g_two_three_data_map_weights);

  return ai_platform_bind_network_params(params, &map_weights, &map_activations);
}


AI_API_DECLARE_END
